{
  "version": "1.0",
  "truncation": null,
  "padding": null,
  "added_tokens": [
    {
      "id": 0,
      "content": "[UNK]",
      "single_word": false,
      "lstrip": false,
      "rstrip": false,
      "normalized": false,
      "special": true
    },
    {
      "id": 1,
      "content": "[CLS]",
      "single_word": false,
      "lstrip": false,
      "rstrip": false,
      "normalized": false,
      "special": true
    },
    {
      "id": 2,
      "content": "[SEP]",
      "single_word": false,
      "lstrip": false,
      "rstrip": false,
      "normalized": false,
      "special": true
    },
    {
      "id": 3,
      "content": "[PAD]",
      "single_word": false,
      "lstrip": false,
      "rstrip": false,
      "normalized": false,
      "special": true
    }
  ],
  "normalizer": {
    "type": "Sequence",
    "normalizers": [
      {
        "type": "BertNormalizer",
        "clean_text": true,
        "handle_chinese_chars": true,
        "strip_accents": true,
        "lowercase": true
      },
      {
        "type": "NFD"
      }
    ]
  },
  "pre_tokenizer": {
    "type": "Whitespace"
  },
  "post_processor": null,
  "decoder": null,
  "model": {
    "type": "BPE",
    "dropout": null,
    "unk_token": "[UNK]",
    "continuing_subword_prefix": null,
    "end_of_word_suffix": null,
    "fuse_unk": false,
    "byte_fallback": false,
    "ignore_merges": false,
    "vocab": {
      "[UNK]": 0,
      "[CLS]": 1,
      "[SEP]": 2,
      "[PAD]": 3,
      "!": 4,
      "\"": 5,
      "#": 6,
      "$": 7,
      "%": 8,
      "&": 9,
      "'": 10,
      "(": 11,
      ")": 12,
      "*": 13,
      "+": 14,
      ",": 15,
      "-": 16,
      ".": 17,
      "/": 18,
      "0": 19,
      "1": 20,
      "2": 21,
      "3": 22,
      "4": 23,
      "5": 24,
      "6": 25,
      "7": 26,
      "8": 27,
      "9": 28,
      ":": 29,
      ";": 30,
      "<": 31,
      "=": 32,
      ">": 33,
      "?": 34,
      "@": 35,
      "[": 36,
      "\\": 37,
      "]": 38,
      "_": 39,
      "`": 40,
      "a": 41,
      "b": 42,
      "c": 43,
      "d": 44,
      "e": 45,
      "f": 46,
      "g": 47,
      "h": 48,
      "i": 49,
      "j": 50,
      "k": 51,
      "l": 52,
      "m": 53,
      "n": 54,
      "o": 55,
      "p": 56,
      "q": 57,
      "r": 58,
      "s": 59,
      "t": 60,
      "u": 61,
      "v": 62,
      "w": 63,
      "x": 64,
      "y": 65,
      "z": 66,
      "{": 67,
      "|": 68,
      "}": 69,
      "~": 70,
      "¡": 71,
      "¢": 72,
      "£": 73,
      "¤": 74,
      "¥": 75,
      "¦": 76,
      "§": 77,
      "¨": 78,
      "©": 79,
      "ª": 80,
      "«": 81,
      "¬": 82,
      "®": 83,
      "¯": 84,
      "°": 85,
      "±": 86,
      "²": 87,
      "³": 88,
      "´": 89,
      "µ": 90,
      "¶": 91,
      "·": 92,
      "¸": 93,
      "¹": 94,
      "º": 95,
      "»": 96,
      "¼": 97,
      "½": 98,
      "¾": 99,
      "¿": 100,
      "æ": 101,
      "ð": 102,
      "œ": 103,
      "ƒ": 104,
      "ˆ": 105,
      "˜": 106,
      "–": 107,
      "‘": 108,
      "’": 109,
      "‚": 110,
      "“": 111,
      "”": 112,
      "„": 113,
      "†": 114,
      "‡": 115,
      "•": 116,
      "…": 117,
      "‰": 118,
      "‹": 119,
      "›": 120,
      "€": 121,
      "™": 122,
      "he": 123,
      "the": 124,
      "an": 125,
      "ed": 126,
      "to": 127,
      "and": 128,
      "in": 129,
      "it": 130,
      "re": 131,
      "ou": 132,
      "as": 133,
      "on": 134,
      "ha": 135,
      "er": 136,
      "was": 137,
      "ar": 138,
      "en": 139,
      "ay": 140,
      "she": 141,
      "ing": 142,
      "om": 143,
      "is": 144,
      "il": 145,
      "id": 146,
      "sa": 147,
      "le": 148,
      "they": 149,
      "al": 150,
      "lo": 151,
      "im": 152,
      "or": 153,
      "her": 154,
      "st": 155,
      "th": 156,
      "ir": 157,
      "at": 158,
      "be": 159,
      "hat": 160,
      "ver": 161,
      "no": 162,
      "ut": 163,
      "you": 164,
      "ke": 165,
      "se": 166,
      "ck": 167,
      "ld": 168,
      "ce": 169,
      "said": 170,
      "so": 171,
      "ve": 172,
      "ri": 173,
      "tim": 174,
      "ily": 175,
      "we": 176,
      "pl": 177,
      "his": 178,
      "am": 179,
      "wit": 180,
      "with": 181,
      "pp": 182,
      "mom": 183,
      "ad": 184,
      "one": 185,
      "ig": 186,
      "lily": 187,
      "of": 188,
      "un": 189,
      "ok": 190,
      "that": 191,
      "ly": 192,
      "day": 193,
      "very": 194,
      "but": 195,
      "ome": 196,
      "li": 197,
      "do": 198,
      "go": 199,
      "ho": 200,
      "ne": 201,
      "up": 202,
      "my": 203,
      "ted": 204,
      "bo": 205,
      "es": 206,
      "play": 207,
      "had": 208,
      "ch": 209,
      "for": 210,
      "all": 211,
      "ro": 212,
      "fe": 213,
      "ould": 214,
      "end": 215,
      "ked": 216,
      "tle": 217,
      "happ": 218,
      "wan": 219,
      "oun": 220,
      "ge": 221,
      "are": 222,
      "ent": 223,
      "ma": 224,
      "not": 225,
      "there": 226,
      "lit": 227,
      "ound": 228,
      "little": 229,
      "ther": 230,
      "time": 231,
      "out": 232,
      "ry": 233,
      "ra": 234,
      "ht": 235,
      "happy": 236,
      "sm": 237,
      "big": 238,
      "fri": 239,
      "saw": 240,
      "some": 241,
      "look": 242,
      "friend": 243,
      ".\"": 244,
      "ack": 245,
      "thing": 246,
      "ul": 247,
      "ide": 248,
      "!\"": 249,
      "ug": 250,
      "ved": 251,
      "were": 252,
      "once": 253,
      "way": 254,
      "sp": 255,
      "whe": 256,
      "car": 257,
      "him": 258,
      "ter": 259,
      "tom": 260,
      "can": 261,
      "su": 262,
      "irl": 263,
      "el": 264,
      "wanted": 265,
      "ben": 266,
      "girl": 267,
      "upon": 268,
      "their": 269,
      "ful": 270,
      "them": 271,
      "mo": 272,
      "co": 273,
      "ill": 274,
      "hel": 275,
      "me": 276,
      "did": 277,
      "smil": 278,
      "could": 279,
      "have": 280,
      "fr": 281,
      "ec": 282,
      "sh": 283,
      "ex": 284,
      "ind": 285,
      "ag": 286,
      "went": 287,
      "ta": 288,
      "new": 289,
      "help": 290,
      "od": 291,
      "nam": 292,
      "?\"": 293,
      "what": 294,
      "friends": 295,
      "ard": 296,
      "when": 297,
      "um": 298,
      "back": 299,
      "say": 300,
      "fel": 301,
      "wn": 302,
      "ur": 303,
      "like": 304,
      "from": 305,
      "fo": 306,
      "fun": 307,
      "man": 308,
      "side": 309,
      "che": 310,
      "ark": 311,
      "too": 312,
      "then": 313,
      "ran": 314,
      "ic": 315,
      "ght": 316,
      "jo": 317,
      "timmy": 318,
      "star": 319,
      "every": 320,
      "la": 321,
      "smiled": 322,
      "named": 323,
      "pr": 324,
      "loved": 325,
      "sto": 326,
      "see": 327,
      "asked": 328,
      "ain": 329,
      "toy": 330,
      "now": 331,
      "felt": 332,
      "low": 333,
      "looked": 334,
      "ts": 335,
      "pe": 336,
      "ick": 337,
      "around": 338,
      "how": 339,
      "ab": 340,
      "ame": 341,
      "bir": 342,
      "make": 343,
      "would": 344,
      "boy": 345,
      "wor": 346,
      "bird": 347,
      "ong": 348,
      "other": 349,
      "ice": 350,
      "ree": 351,
      "na": 352,
      "gr": 353,
      "ca": 354,
      "mommy": 355,
      "than": 356,
      "mad": 357,
      "op": 358,
      ",\"": 359,
      "away": 360,
      "toge": 361,
      "together": 362,
      "dad": 363,
      "ss": 364,
      "dd": 365,
      "says": 366,
      "started": 367,
      "wat": 368,
      "oud": 369,
      "ie": 370,
      "want": 371,
      "something": 372,
      "made": 373,
      "came": 374,
      "ited": 375,
      "park": 376,
      "if": 377,
      "sad": 378,
      "put": 379,
      "good": 380,
      "ight": 381,
      "let": 382,
      "exc": 383,
      "got": 384,
      "who": 385,
      "lu": 386,
      "scar": 387,
      "mu": 388,
      "home": 389,
      "again": 390,
      "wal": 391,
      "get": 392,
      "ave": 393,
      "wo": 394,
      "ll": 395,
      "found": 396,
      "ep": 397,
      "ried": 398,
      "dec": 399,
      "pped": 400,
      "qu": 401,
      "ure": 402,
      "more": 403,
      "hug": 404,
      "by": 405,
      "playing": 406,
      "ought": 407,
      "king": 408,
      "ach": 409,
      "po": 410,
      "wh": 411,
      "things": 412,
      "excited": 413,
      "der": 414,
      "your": 415,
      "liked": 416,
      "ny": 417,
      "yes": 418,
      "sam": 419,
      "ous": 420,
      "ara": 421,
      "ided": 422,
      "sha": 423,
      "fa": 424,
      "decided": 425,
      "af": 426,
      "ouse": 427,
      "ty": 428,
      "care": 429,
      "dog": 430,
      "bu": 431,
      "this": 432,
      "arn": 433,
      "scared": 434,
      "down": 435,
      "ru": 436,
      "use": 437,
      "find": 438,
      "take": 439,
      "clo": 440,
      "ju": 441,
      "anna": 442,
      "sara": 443,
      "ate": 444,
      "will": 445,
      "feel": 446,
      "come": 447,
      "ways": 448,
      "our": 449,
      "max": 450,
      "ang": 451,
      "sor": 452,
      "pre": 453,
      "always": 454,
      "bb": 455,
      "about": 456,
      "took": 457,
      "spec": 458,
      "te": 459,
      "toys": 460,
      "didn": 461,
      "ise": 462,
      "old": 463,
      "outside": 464,
      "ally": 465,
      "tree": 466,
      "ers": 467,
      "thought": 468,
      "learn": 469,
      "cat": 470,
      "ive": 471,
      "ened": 472,
      "ched": 473,
      "de": 474,
      "room": 475,
      "fore": 476,
      "mi": 477,
      "ite": 478,
      "know": 479,
      "ant": 480,
      "ial": 481,
      "wa": 482,
      "don": 483,
      "laug": 484,
      "special": 485,
      "sudd": 486,
      "sudden": 487,
      "inside": 488,
      "knew": 489,
      "ged": 490,
      "run": 491,
      "sorry": 492,
      "any": 493,
      "ball": 494,
      "sw": 495,
      "just": 496,
      "suddenly": 497,
      "ink": 498,
      "never": 499,
      "house": 500,
      "ble": 501,
      "ish": 502,
      "after": 503,
      "us": 504,
      "red": 505,
      "show": 506,
      "lf": 507,
      "jack": 508,
      "ist": 509,
      "much": 510,
      "led": 511,
      "hand": 512,
      "sun": 513,
      "dre": 514,
      "fin": 515,
      "careful": 516,
      "ot": 517,
      "cle": 518,
      "ven": 519,
      "cre": 520,
      "sk": 521,
      "arm": 522,
      "gave": 523,
      "hed": 524,
      "into": 525,
      "tried": 526,
      "long": 527,
      "water": 528,
      "told": 529,
      "ast": 530,
      "box": 531,
      "each": 532,
      "over": 533,
      "proud": 534,
      "pa": 535,
      "heard": 536,
      "dy": 537,
      "read": 538,
      "love": 539,
      "gre": 540,
      "har": 541,
      "thank": 542,
      "eat": 543,
      "br": 544,
      "cl": 545,
      "ump": 546,
      "pick": 547,
      "pret": 548,
      "ear": 549,
      "played": 550,
      "couldn": 551,
      "mia": 552,
      "cause": 553,
      "ion": 554,
      "because": 555,
      "hugged": 556,
      "unt": 557,
      "off": 558,
      "bear": 559,
      "right": 560,
      "exp": 561,
      "where": 562,
      "nice": 563,
      "ile": 564,
      "fly": 565,
      "com": 566,
      "need": 567,
      "many": 568,
      "try": 569,
      "shed": 570,
      "flow": 571,
      "lad": 572,
      "ac": 573,
      "small": 574,
      "ving": 575,
      "anim": 576,
      "bet": 577,
      "animal": 578,
      "rabb": 579,
      "oug": 580,
      "shin": 581,
      "ting": 582,
      "ough": 583,
      "ber": 584,
      "its": 585,
      "even": 586,
      "until": 587,
      "fi": 588,
      "self": 589,
      "soon": 590,
      "per": 591,
      "bed": 592,
      "iz": 593,
      "kind": 594,
      "learned": 595,
      "everyone": 596,
      "bea": 597,
      "ket": 598,
      "better": 599,
      "bro": 600,
      "call": 601,
      "ace": 602,
      "vent": 603,
      "cy": 604,
      "give": 605,
      "best": 606,
      "tur": 607,
      "pu": 608,
      "bra": 609,
      "ass": 610,
      "et": 611,
      "hur": 612,
      "explo": 613,
      "spot": 614,
      "gard": 615,
      "garden": 616,
      "tre": 617,
      "cks": 618,
      "beaut": 619,
      "ol": 620,
      "fle": 621,
      "rea": 622,
      "thanked": 623,
      "sky": 624,
      "laughed": 625,
      "jump": 626,
      "sho": 627,
      "under": 628,
      "sur": 629,
      "safe": 630,
      "joy": 631,
      "tru": 632,
      "ase": 633,
      "ple": 634,
      "loud": 635,
      "list": 636,
      "lly": 637,
      "pt": 638,
      "ft": 639,
      "iful": 640,
      "beautiful": 641,
      "lots": 642,
      "still": 643,
      "rong": 644,
      "fam": 645,
      "ama": 646,
      "ning": 647,
      "animals": 648,
      "rain": 649,
      "joh": 650,
      "stay": 651,
      "mum": 652,
      "john": 653,
      "win": 654,
      "won": 655,
      "book": 656,
      "both": 657,
      "igh": 658,
      "ell": 659,
      "two": 660,
      "bad": 661,
      "cu": 662,
      "hard": 663,
      "turn": 664,
      "keep": 665,
      "ople": 666,
      "lived": 667,
      "people": 668,
      "okay": 669,
      "ct": 670,
      "brave": 671,
      "lucy": 672,
      "row": 673,
      "walked": 674,
      "should": 675,
      "ground": 676,
      "surpr": 677,
      "angry": 678,
      "family": 679,
      "flew": 680,
      "ort": 681,
      "called": 682,
      "sure": 683,
      "ished": 684,
      "ine": 685,
      "hurt": 686,
      "app": 687,
      "door": 688,
      "while": 689,
      "kept": 690,
      "con": 691,
      "real": 692,
      "share": 693,
      "before": 694,
      "fast": 695,
      "lue": 696,
      "ane": 697,
      "ised": 698,
      "pic": 699,
      "going": 700,
      "pretty": 701,
      "xt": 702,
      "ser": 703,
      "sl": 704,
      "clean": 705,
      "next": 706,
      "may": 707,
      "lot": 708,
      "why": 709,
      "advent": 710,
      "imp": 711,
      "able": 712,
      "noise": 713,
      "opened": 714,
      "shiny": 715,
      "doll": 716,
      "cry": 717,
      "explore": 718,
      "feeling": 719,
      "place": 720,
      "grand": 721,
      "illy": 722,
      "kit": 723,
      "dra": 724,
      "also": 725,
      "em": 726,
      "lie": 727,
      "€™": 728,
      "ild": 729,
      "mem": 730,
      "ied": 731,
      "mar": 732,
      "idea": 733,
      "nodd": 734,
      "bob": 735,
      "colo": 736,
      "uck": 737,
      "nodded": 738,
      "blue": 739,
      "tal": 740,
      "fish": 741,
      "picked": 742,
      "color": 743,
      "hear": 744,
      "set": 745,
      "walking": 746,
      "clim": 747,
      "ask": 748,
      "head": 749,
      "work": 750,
      "face": 751,
      "has": 752,
      "ren": 753,
      "adventure": 754,
      "smile": 755,
      "par": 756,
      "ring": 757,
      "being": 758,
      "less": 759,
      "ture": 760,
      "maybe": 761,
      "finally": 762,
      "looking": 763,
      "ies": 764,
      "iced": 765,
      "vo": 766,
      "bye": 767,
      "hair": 768,
      "ious": 769,
      "wait": 770,
      "dif": 771,
      "listen": 772,
      "food": 773,
      "walk": 774,
      "ever": 775,
      "ste": 776,
      "picture": 777,
      "think": 778,
      "night": 779,
      "remem": 780,
      "da": 781,
      "used": 782,
      "les": 783,
      "eyes": 784,
      "ught": 785,
      "here": 786,
      "stopped": 787,
      "cook": 788,
      "great": 789,
      "own": 790,
      "sue": 791,
      "flowers": 792,
      "bl": 793,
      "enjoy": 794,
      "squ": 795,
      "year": 796,
      "mon": 797,
      "wonder": 798,
      "remember": 799,
      "repl": 800,
      "blo": 801,
      "quick": 802,
      "ries": 803,
      "import": 804,
      "ess": 805,
      "forest": 806,
      "noticed": 807,
      "hands": 808,
      "near": 809,
      "watch": 810,
      "ized": 811,
      "ph": 812,
      "dan": 813,
      "irst": 814,
      "leave": 815,
      "bun": 816,
      "important": 817,
      "llow": 818,
      "sound": 819,
      "slide": 820,
      "amaz": 821,
      "replied": 822,
      "cho": 823,
      "stop": 824,
      "table": 825,
      "follow": 826,
      "mor": 827,
      "showed": 828,
      "mean": 829,
      "tou": 830,
      "ip": 831,
      "tin": 832,
      "gan": 833,
      "voice": 834,
      "tell": 835,
      "swe": 836,
      "feren": 837,
      "differen": 838,
      "sarah": 839,
      "mag": 840,
      "cream": 841,
      "swing": 842,
      "sing": 843,
      "rabbit": 844,
      "stick": 845,
      "cake": 846,
      "rest": 847,
      "bright": 848,
      "mis": 849,
      "watched": 850,
      "goodbye": 851,
      "bow": 852,
      "truck": 853,
      "please": 854,
      "dis": 855,
      "store": 856,
      "daddy": 857,
      "quickly": 858,
      "been": 859,
      "boat": 860,
      "gu": 861,
      "strong": 862,
      "curi": 863,
      "ner": 864,
      "jane": 865,
      "stand": 866,
      "flo": 867,
      "different": 868,
      "bit": 869,
      "tor": 870,
      "hello": 871,
      "tow": 872,
      "first": 873,
      "became": 874,
      "does": 875,
      "high": 876,
      "ready": 877,
      "closer": 878,
      "curious": 879,
      "key": 880,
      "sand": 881,
      "warm": 882,
      "ummy": 883,
      "joe": 884,
      "ung": 885,
      "ila": 886,
      "laugh": 887,
      "three": 888,
      "fav": 889,
      "fro": 890,
      "grandma": 891,
      "dress": 892,
      "pie": 893,
      "open": 894,
      "lila": 895,
      "rough": 896,
      "leep": 897,
      "ond": 898,
      "ten": 899,
      "pul": 900,
      "anymore": 901,
      "butter": 902,
      "bunny": 903,
      "sit": 904,
      "flower": 905,
      "kid": 906,
      "grabb": 907,
      "ired": 908,
      "only": 909,
      "pain": 910,
      "med": 911,
      "ba": 912,
      "grabbed": 913,
      "yel": 914,
      "fire": 915,
      "light": 916,
      "isy": 917,
      "times": 918,
      "dro": 919,
      "fell": 920,
      "rock": 921,
      "birds": 922,
      "deli": 923,
      "jumped": 924,
      "glad": 925,
      "chen": 926,
      "kitchen": 927,
      "pare": 928,
      "ered": 929,
      "cut": 930,
      "ff": 931,
      "helped": 932,
      "cket": 933,
      "air": 934,
      "outed": 935,
      "prin": 936,
      "brea": 937,
      "ow": 938,
      "sed": 939,
      "top": 940,
      "happened": 941,
      "ash": 942,
      "yummy": 943,
      "wel": 944,
      "rel": 945,
      "grass": 946,
      "bal": 947,
      "tommy": 948,
      "sees": 949,
      "story": 950,
      "shouted": 951,
      "really": 952,
      "having": 953,
      "dow": 954,
      "brother": 955,
      "reached": 956,
      "din": 957,
      "realized": 958,
      "lady": 959,
      "ster": 960,
      "paren": 961,
      "through": 962,
      "favor": 963,
      "draw": 964,
      "favorite": 965,
      "game": 966,
      "coming": 967,
      "bor": 968,
      "piece": 969,
      "soft": 970,
      "zy": 971,
      "tra": 972,
      "magic": 973,
      "pretend": 974,
      "began": 975,
      "ray": 976,
      "world": 977,
      "looks": 978,
      "sweet": 979,
      "kids": 980,
      "done": 981,
      "cra": 982,
      "himself": 983,
      "col": 984,
      "making": 985,
      "wow": 986,
      "sometimes": 987,
      "mouse": 988,
      "prom": 989,
      "pond": 990,
      "waved": 991,
      "move": 992,
      "tired": 993,
      "fix": 994,
      "cked": 995,
      "fill": 996,
      "cars": 997,
      "worry": 998,
      "sn": 999,
      "ped": 1000,
      "delic": 1001,
      "name": 1002,
      "hold": 1003,
      "cold": 1004,
      "parents": 1005,
      "touch": 1006,
      "sally": 1007,
      "catch": 1008,
      "funny": 1009,
      "another": 1010,
      "farm": 1011,
      "seen": 1012,
      "ater": 1013,
      "pro": 1014,
      "surprise": 1015,
      "ient": 1016,
      "bab": 1017,
      "daisy": 1018,
      "green": 1019,
      "river": 1020,
      "doing": 1021,
      "hopped": 1022,
      "cried": 1023,
      "oney": 1024,
      "blocks": 1025,
      "ds": 1026,
      "cool": 1027,
      "\".": 1028,
      "cor": 1029,
      "ons": 1030,
      "years": 1031,
      "close": 1032,
      "age": 1033,
      "mess": 1034,
      "wood": 1035,
      "turned": 1036,
      "climb": 1037,
      "andy": 1038,
      "snow": 1039,
      "floor": 1040,
      "hind": 1041,
      "sat": 1042,
      "frog": 1043,
      "cla": 1044,
      "behind": 1045,
      "trees": 1046,
      "full": 1047,
      "running": 1048,
      "lesson": 1049,
      "ppy": 1050,
      "window": 1051,
      "ger": 1052,
      "worked": 1053,
      "wear": 1054,
      "plan": 1055,
      "slow": 1056,
      "dark": 1057,
      "yellow": 1058,
      "paper": 1059,
      "likes": 1060,
      "ign": 1061,
      "wished": 1062,
      "swim": 1063,
      "sleep": 1064,
      "baby": 1065,
      "bag": 1066,
      "fl": 1067,
      "happily": 1068,
      "pat": 1069,
      "jim": 1070,
      "tas": 1071,
      "surprised": 1072,
      "teddy": 1073,
      "cas": 1074,
      "butterfly": 1075,
      "carefully": 1076,
      "pet": 1077,
      "benny": 1078,
      "yard": 1079,
      "hole": 1080,
      "lost": 1081,
      "remembered": 1082,
      "held": 1083,
      "race": 1084,
      "sy": 1085,
      "bar": 1086,
      "needed": 1087,
      "buy": 1088,
      "fair": 1089,
      "castle": 1090,
      "arri": 1091,
      "left": 1092,
      "dream": 1093,
      "billy": 1094,
      "anything": 1095,
      "reed": 1096,
      "chil": 1097,
      "ation": 1098,
      "wrong": 1099,
      "enjoyed": 1100,
      "tri": 1101,
      "bug": 1102,
      "dren": 1103,
      "far": 1104,
      "gen": 1105,
      "children": 1106,
      "duck": 1107,
      "followed": 1108,
      "stran": 1109,
      "mat": 1110,
      "ined": 1111,
      "ross": 1112,
      "delicious": 1113,
      "wind": 1114,
      "someone": 1115,
      "hung": 1116,
      "ak": 1117,
      "molly": 1118,
      "finished": 1119,
      "bot": 1120,
      "hot": 1121,
      "friendly": 1122,
      "contin": 1123,
      "dir": 1124,
      "continu": 1125,
      "spo": 1126,
      "tall": 1127,
      "agreed": 1128,
      "herself": 1129,
      "amy": 1130,
      "cess": 1131,
      "vis": 1132,
      "hill": 1133,
      "ather": 1134,
      "understand": 1135,
      "ards": 1136,
      "oken": 1137,
      "tr": 1138,
      "might": 1139,
      "hid": 1140,
      "everywhere": 1141,
      "arrived": 1142,
      "land": 1143,
      "ings": 1144,
      "wonderful": 1145,
      "else": 1146,
      "broken": 1147,
      "zo": 1148,
      "tight": 1149,
      "forgot": 1150,
      "ield": 1151,
      "pink": 1152,
      "most": 1153,
      "squir": 1154,
      "colors": 1155,
      "que": 1156,
      "jen": 1157,
      "ange": 1158,
      "build": 1159,
      "gone": 1160,
      "filled": 1161,
      "coun": 1162,
      "erous": 1163,
      "fur": 1164,
      "ike": 1165,
      "books": 1166,
      "song": 1167,
      "fight": 1168,
      "everything": 1169,
      "squirrel": 1170,
      "mother": 1171,
      "lion": 1172,
      "wi": 1173,
      "continued": 1174,
      "creat": 1175,
      "asure": 1176,
      "ches": 1177,
      "art": 1178,
      "wants": 1179,
      "leaves": 1180,
      "ced": 1181,
      "later": 1182,
      "getting": 1183,
      "enough": 1184,
      "fru": 1185,
      "morning": 1186,
      "mama": 1187,
      "moment": 1188,
      "fall": 1189,
      "oh": 1190,
      "cookies": 1191,
      "break": 1192,
      "stayed": 1193,
      "poin": 1194,
      "pen": 1195,
      "beach": 1196,
      "ze": 1197,
      "scary": 1198,
      "whis": 1199,
      "stu": 1200,
      "few": 1201,
      "dinner": 1202,
      "tain": 1203,
      "today": 1204,
      "spark": 1205,
      "fect": 1206,
      "hungry": 1207,
      "wet": 1208,
      "ence": 1209,
      "dr": 1210,
      "amazing": 1211,
      "trying": 1212,
      "perfect": 1213,
      "pack": 1214,
      "fas": 1215,
      "plain": 1216,
      "bee": 1217,
      "makes": 1218,
      "others": 1219,
      "asks": 1220,
      "climbed": 1221,
      "talk": 1222,
      "mus": 1223,
      "pictures": 1224,
      "cover": 1225,
      "tail": 1226,
      "spl": 1227,
      "kno": 1228,
      "icy": 1229,
      "white": 1230,
      "tw": 1231,
      "sis": 1232,
      "ton": 1233,
      "pes": 1234,
      "hi": 1235,
      "listened": 1236,
      "fox": 1237,
      "brown": 1238,
      "smiles": 1239,
      "ballo": 1240,
      "roll": 1241,
      "jill": 1242,
      "rew": 1243,
      "wall": 1244,
      "clothe": 1245,
      "alone": 1246,
      "puppy": 1247,
      "av": 1248,
      "clothes": 1249,
      "oup": 1250,
      "train": 1251,
      "ated": 1252,
      "ance": 1253,
      "dang": 1254,
      "brought": 1255,
      "strange": 1256,
      "sear": 1257,
      "met": 1258,
      "appear": 1259,
      "grow": 1260,
      "deep": 1261,
      "woods": 1262,
      "sail": 1263,
      "bike": 1264,
      "well": 1265,
      "pulled": 1266,
      "moral": 1267,
      "ling": 1268,
      "ride": 1269,
      "zz": 1270,
      "pping": 1271,
      "treat": 1272,
      "ffy": 1273,
      "flu": 1274,
      "drag": 1275,
      "gi": 1276,
      "hor": 1277,
      "wasn": 1278,
      "music": 1279,
      "lake": 1280,
      "waited": 1281,
      "nap": 1282,
      "amazed": 1283,
      "hide": 1284,
      "fluffy": 1285,
      "bath": 1286,
      "pur": 1287,
      "towards": 1288,
      "field": 1289,
      "je": 1290,
      "silly": 1291,
      "flying": 1292,
      "thy": 1293,
      "belie": 1294,
      "sc": 1295,
      "owner": 1296,
      "cloud": 1297,
      "shared": 1298,
      "runs": 1299,
      "slowly": 1300,
      "visit": 1301,
      "quie": 1302,
      "living": 1303,
      "job": 1304,
      "du": 1305,
      "ames": 1306,
      "promised": 1307,
      "dance": 1308,
      "pers": 1309,
      "ses": 1310,
      "thinks": 1311,
      "mary": 1312,
      "sister": 1313,
      "mind": 1314,
      "party": 1315,
      "must": 1316,
      "money": 1317,
      "quiet": 1318,
      "ises": 1319,
      "luck": 1320,
      "bran": 1321,
      "worried": 1322,
      "answ": 1323,
      "chair": 1324,
      "ased": 1325,
      "grate": 1326,
      "faster": 1327,
      "grateful": 1328,
      "cup": 1329,
      "pass": 1330,
      "umb": 1331,
      "colorful": 1332,
      "pieces": 1333,
      "ment": 1334,
      "mr": 1335,
      "explain": 1336,
      "ctor": 1337,
      "min": 1338,
      "igg": 1339,
      "join": 1340,
      "broke": 1341,
      "gif": 1342,
      "such": 1343,
      "bigger": 1344,
      "welcome": 1345,
      "cou": 1346,
      "gra": 1347,
      "candy": 1348,
      "shes": 1349,
      "ele": 1350,
      "snack": 1351,
      "monster": 1352,
      "reach": 1353,
      "board": 1354,
      "kis": 1355,
      "blan": 1356,
      "black": 1357,
      "dry": 1358,
      "farmer": 1359,
      "heav": 1360,
      "ually": 1361,
      "des": 1362,
      "monkey": 1363,
      "start": 1364,
      "twin": 1365,
      "words": 1366,
      "treasure": 1367,
      "scream": 1368,
      "magical": 1369,
      "dragon": 1370,
      "dangerous": 1371,
      "sign": 1372,
      "event": 1373,
      "helping": 1374,
      "across": 1375,
      "mil": 1376,
      "ming": 1377,
      "princess": 1378,
      "dri": 1379,
      "jimmy": 1380,
      "smart": 1381,
      "amp": 1382,
      "ja": 1383,
      "outh": 1384,
      "mouth": 1385,
      "smel": 1386,
      "ose": 1387,
      "rot": 1388,
      "ourse": 1389,
      "happen": 1390,
      "di": 1391,
      "believe": 1392,
      "plane": 1393,
      "shar": 1394,
      "dolls": 1395,
      "tower": 1396,
      "threw": 1397,
      "stepped": 1398,
      "heavy": 1399,
      "bite": 1400,
      "doctor": 1401,
      "bowl": 1402,
      "dirty": 1403,
      "twins": 1404,
      "same": 1405,
      "crying": 1406,
      "ves": 1407,
      "ident": 1408,
      "mummy": 1409,
      "wave": 1410,
      "heal": 1411,
      "hig": 1412,
      "appeared": 1413,
      "scho": 1414,
      "ap": 1415,
      "school": 1416,
      "closed": 1417,
      "wag": 1418,
      "stuck": 1419,
      "bas": 1420,
      "balloon": 1421,
      "press": 1422,
      "emma": 1423,
      "lun": 1424,
      "without": 1425,
      "mix": 1426,
      "eating": 1427,
      "hoped": 1428,
      "pow": 1429,
      "fairy": 1430,
      "paint": 1431,
      "pull": 1432,
      "town": 1433,
      "feels": 1434,
      "wr": 1435,
      "iting": 1436,
      "gs": 1437,
      "mit": 1438,
      "cray": 1439,
      "wouldn": 1440,
      "course": 1441,
      "val": 1442,
      "clapped": 1443,
      "stood": 1444,
      "free": 1445,
      "button": 1446,
      "gentle": 1447,
      "tent": 1448,
      "comfor": 1449,
      "child": 1450,
      "eventually": 1451,
      "takes": 1452,
      "basket": 1453,
      "youn": 1454,
      "pop": 1455,
      "along": 1456,
      "drove": 1457,
      "shine": 1458,
      "pushed": 1459,
      "round": 1460,
      "higher": 1461,
      "chee": 1462,
      "neigh": 1463,
      "phone": 1464,
      "teac": 1465,
      "acc": 1466,
      "teacher": 1467,
      "swings": 1468,
      "mine": 1469,
      "ary": 1470,
      "blanket": 1471,
      "stead": 1472,
      "str": 1473,
      "mark": 1474,
      "accident": 1475,
      "games": 1476,
      "wise": 1477,
      "cheered": 1478,
      "moved": 1479,
      "smo": 1480,
      "jour": 1481,
      "wings": 1482,
      "explained": 1483,
      "longer": 1484,
      "sna": 1485,
      "coin": 1486,
      "ible": 1487,
      "late": 1488,
      "bel": 1489,
      "ney": 1490,
      "wish": 1491,
      "throw": 1492,
      "tu": 1493,
      "ps": 1494,
      "noises": 1495,
      "sang": 1496,
      "stone": 1497,
      "though": 1498,
      "hugs": 1499,
      "turns": 1500,
      "apple": 1501,
      "stre": 1502,
      "stories": 1503,
      "singing": 1504,
      "tiny": 1505,
      "instead": 1506,
      "shoes": 1507,
      "lone": 1508,
      "eleph": 1509,
      "owl": 1510,
      "adventures": 1511,
      "del": 1512,
      "trou": 1513,
      "neck": 1514,
      "lunch": 1515,
      "jar": 1516,
      "sea": 1517,
      "fence": 1518,
      "upset": 1519,
      "lonely": 1520,
      "young": 1521,
      "stree": 1522,
      "dist": 1523,
      "secre": 1524,
      "belong": 1525,
      "heart": 1526,
      "ountain": 1527,
      "miss": 1528,
      "soup": 1529,
      "add": 1530,
      "exploring": 1531,
      "nearby": 1532,
      "nee": 1533,
      "shook": 1534,
      "nothing": 1535,
      "ours": 1536,
      "pocket": 1537,
      "sammy": 1538,
      "naught": 1539,
      "bring": 1540,
      "naughty": 1541,
      "stars": 1542,
      "taking": 1543,
      "hit": 1544,
      "fused": 1545,
      "ship": 1546,
      "forget": 1547,
      "sunny": 1548,
      "cal": 1549,
      "res": 1550,
      "caught": 1551,
      "cow": 1552,
      "drink": 1553,
      "purple": 1554,
      "woke": 1555,
      "backyard": 1556,
      "seemed": 1557,
      "rocks": 1558,
      "relie": 1559,
      "fit": 1560,
      "whenever": 1561,
      "body": 1562,
      "sli": 1563,
      "pan": 1564,
      "mail": 1565,
      "dropped": 1566,
      "daught": 1567,
      "ect": 1568,
      "daughter": 1569,
      "orange": 1570,
      "coat": 1571,
      "street": 1572,
      "swam": 1573,
      "mm": 1574,
      "sent": 1575,
      "shop": 1576,
      "days": 1577,
      "part": 1578,
      "mitten": 1579,
      "shapes": 1580,
      "ions": 1581,
      "rainbow": 1582,
      "driver": 1583,
      "pil": 1584,
      "sitting": 1585,
      "sounds": 1586,
      "bench": 1587,
      "pot": 1588,
      "fing": 1589,
      "comes": 1590,
      "boun": 1591,
      "busy": 1592,
      "wondered": 1593,
      "ier": 1594,
      "sco": 1595,
      "nest": 1596,
      "lucky": 1597,
      "nose": 1598,
      "hu": 1599,
      "juice": 1600,
      "erful": 1601,
      "pig": 1602,
      "ugg": 1603,
      "kite": 1604,
      "holding": 1605,
      "wee": 1606,
      "smell": 1607,
      "sug": 1608,
      "cer": 1609,
      "pra": 1610,
      "mach": 1611,
      "cing": 1612,
      "arms": 1613,
      "birth": 1614,
      "rown": 1615,
      "band": 1616,
      "cir": 1617,
      "bottle": 1618,
      "promise": 1619,
      "ull": 1620,
      "cute": 1621,
      "birthday": 1622,
      "loves": 1623,
      "secret": 1624,
      "branch": 1625,
      "quest": 1626,
      "relieved": 1627,
      "pper": 1628,
      "raid": 1629,
      "elephant": 1630,
      "afraid": 1631,
      "zoom": 1632,
      "uni": 1633,
      "idge": 1634,
      "forever": 1635,
      "tun": 1636,
      "gl": 1637,
      "peace": 1638,
      "carry": 1639,
      "sick": 1640,
      "gift": 1641,
      "jenny": 1642,
      "life": 1643,
      "push": 1644,
      "hope": 1645,
      "cheese": 1646,
      "spin": 1647,
      "huge": 1648,
      "touched": 1649,
      "bucket": 1650,
      "patient": 1651,
      "ars": 1652,
      "grab": 1653,
      "live": 1654,
      "covered": 1655,
      "orn": 1656,
      "honey": 1657,
      "letter": 1658,
      "inte": 1659,
      "interest": 1660,
      "wand": 1661,
      "exciting": 1662,
      "wra": 1663,
      "imag": 1664,
      "vel": 1665,
      "onto": 1666,
      "bush": 1667,
      "laughing": 1668,
      "hey": 1669,
      "gigg": 1670,
      "test": 1671,
      "journey": 1672,
      "gest": 1673,
      "creature": 1674,
      "bread": 1675,
      "kick": 1676,
      "bru": 1677,
      "ward": 1678,
      "shell": 1679,
      "act": 1680,
      "craw": 1681,
      "hop": 1682,
      "swimming": 1683,
      "sunshine": 1684,
      "suc": 1685,
      "cozy": 1686,
      "emily": 1687,
      "bubb": 1688,
      "ness": 1689,
      "eas": 1690,
      "milk": 1691,
      "gives": 1692,
      "cha": 1693,
      "watching": 1694,
      "net": 1695,
      "pudd": 1696,
      "roar": 1697,
      "accidentally": 1698,
      "cave": 1699,
      "shout": 1700,
      "sharp": 1701,
      "eg": 1702,
      "ian": 1703,
      "puts": 1704,
      "colle": 1705,
      "talked": 1706,
      "fan": 1707,
      "stor": 1708,
      "pointed": 1709,
      "gather": 1710,
      "mittens": 1711,
      "road": 1712,
      "smiling": 1713,
      "neighbor": 1714,
      "anyone": 1715,
      "snake": 1716,
      "bought": 1717,
      "searched": 1718,
      "ade": 1719,
      "apples": 1720,
      "sandwi": 1721,
      "nic": 1722,
      "shelf": 1723,
      "storm": 1724,
      "proble": 1725,
      "problem": 1726,
      "ia": 1727,
      "word": 1728,
      "splash": 1729,
      "ize": 1730,
      "wide": 1731,
      "these": 1732,
      "inv": 1733,
      "whi": 1734,
      "wom": 1735,
      "spid": 1736,
      "healthy": 1737,
      "interesting": 1738,
      "irt": 1739,
      "woman": 1740,
      "bur": 1741,
      "ducks": 1742,
      "circle": 1743,
      "spoon": 1744,
      "sie": 1745,
      "ens": 1746,
      "tasty": 1747,
      "lar": 1748,
      "pile": 1749,
      "eag": 1750,
      "vill": 1751,
      "trouble": 1752,
      "clever": 1753,
      "rope": 1754,
      "ones": 1755,
      "clouds": 1756,
      "crayons": 1757,
      "grandpa": 1758,
      "matter": 1759,
      "person": 1760,
      "feather": 1761,
      "log": 1762,
      "which": 1763,
      "rose": 1764,
      "path": 1765,
      "rat": 1766,
      "fron": 1767,
      "snowman": 1768,
      "prot": 1769,
      "ently": 1770,
      "front": 1771,
      "wash": 1772,
      "comfortable": 1773,
      "zoo": 1774,
      "shining": 1775,
      "isa": 1776,
      "smelled": 1777,
      "respec": 1778,
      "pract": 1779,
      "jake": 1780,
      "ching": 1781,
      "spotted": 1782,
      "valu": 1783,
      "minut": 1784,
      "screamed": 1785,
      "organ": 1786,
      "mud": 1787,
      "wheel": 1788,
      "lock": 1789,
      "dest": 1790,
      "danced": 1791,
      "ban": 1792,
      "seat": 1793,
      "bark": 1794,
      "puzz": 1795,
      "teach": 1796,
      "myster": 1797,
      "thin": 1798,
      "berries": 1799,
      "orm": 1800,
      "gy": 1801,
      "horse": 1802,
      "fli": 1803,
      "gently": 1804,
      "tries": 1805,
      "lovely": 1806,
      "answer": 1807,
      "asleep": 1808,
      "mir": 1809,
      "rolled": 1810,
      "epend": 1811,
      "wearing": 1812,
      "ob": 1813,
      "wild": 1814,
      "places": 1815,
      "mel": 1816,
      "goes": 1817,
      "present": 1818,
      "whole": 1819,
      "giant": 1820,
      "lisa": 1821,
      "pill": 1822,
      "string": 1823,
      "confused": 1824,
      "fruit": 1825,
      "worm": 1826,
      "step": 1827,
      "impress": 1828,
      "corner": 1829,
      "sharing": 1830,
      "dirt": 1831,
      "ular": 1832,
      "respect": 1833,
      "chick": 1834,
      "card": 1835,
      "calm": 1836,
      "corn": 1837,
      "rich": 1838,
      "vie": 1839,
      "slid": 1840,
      "rubb": 1841,
      "tasted": 1842,
      "forgive": 1843,
      "cean": 1844,
      "ocean": 1845,
      "rude": 1846,
      "picnic": 1847,
      "tee": 1848,
      "machine": 1849,
      "tool": 1850,
      "drive": 1851,
      "true": 1852,
      "spent": 1853,
      "teeth": 1854,
      "inc": 1855,
      "spider": 1856,
      "furry": 1857,
      "char": 1858,
      "cookie": 1859,
      "lay": 1860,
      "pour": 1861,
      "oven": 1862,
      "kitty": 1863,
      "pretended": 1864,
      "past": 1865,
      "fighting": 1866,
      "last": 1867,
      "feet": 1868,
      "shr": 1869,
      "nut": 1870,
      "tomor": 1871,
      "fold": 1872,
      "faces": 1873,
      "peter": 1874,
      "tomorrow": 1875,
      "shy": 1876,
      "tea": 1877,
      "ti": 1878,
      "erly": 1879,
      "helpful": 1880,
      "umber": 1881,
      "spe": 1882,
      "finish": 1883,
      "hang": 1884,
      "ashed": 1885,
      "ann": 1886,
      "chocol": 1887,
      "grace": 1888,
      "mountain": 1889,
      "ity": 1890,
      "lace": 1891,
      "peaceful": 1892,
      "talking": 1893,
      "stret": 1894,
      "sque": 1895,
      "oth": 1896,
      "stair": 1897,
      "tid": 1898,
      "spread": 1899,
      "ladder": 1900,
      "bell": 1901,
      "joke": 1902,
      "foot": 1903,
      "bugs": 1904,
      "cele": 1905,
      "village": 1906,
      "remind": 1907,
      "write": 1908,
      "sol": 1909,
      "ator": 1910,
      "building": 1911,
      "seek": 1912,
      "couch": 1913,
      "den": 1914,
      "spit": 1915,
      "crab": 1916,
      "wore": 1917,
      "smooth": 1918,
      "chased": 1919,
      "fred": 1920,
      "treats": 1921,
      "plant": 1922,
      "ighed": 1923,
      "trip": 1924,
      "blew": 1925,
      "cage": 1926,
      "embar": 1927,
      "paw": 1928,
      "poli": 1929,
      "embarr": 1930,
      "waiting": 1931,
      "stir": 1932,
      "pool": 1933,
      "hiding": 1934,
      "kets": 1935,
      "shake": 1936,
      "knee": 1937,
      "puddle": 1938,
      "prince": 1939,
      "necklace": 1940,
      "chocolate": 1941,
      "songs": 1942,
      "embarrass": 1943,
      "selfish": 1944,
      "cur": 1945,
      "cross": 1946,
      "hum": 1947,
      "cannot": 1948,
      "banan": 1949,
      "trust": 1950,
      "cloth": 1951,
      "taste": 1952,
      "sack": 1953,
      "ult": 1954,
      "leaf": 1955,
      "lves": 1956,
      "spray": 1957,
      "ye": 1958,
      "rag": 1959,
      "bus": 1960,
      "large": 1961,
      "kin": 1962,
      "stra": 1963,
      "tidy": 1964,
      "fixed": 1965,
      "barked": 1966,
      "celebr": 1967,
      "colour": 1968,
      "carrot": 1969,
      "line": 1970,
      "cord": 1971,
      "count": 1972,
      "pee": 1973,
      "hone": 1974,
      "asha": 1975,
      "ipped": 1976,
      "umpy": 1977,
      "moon": 1978,
      "robot": 1979,
      "oin": 1980,
      "mmer": 1981,
      "œi": 1982,
      "jung": 1983,
      "deter": 1984,
      "whistle": 1985,
      "tie": 1986,
      "jungle": 1987,
      "johnny": 1988,
      "za": 1989,
      "honest": 1990,
      "rots": 1991,
      "missed": 1992,
      "shirt": 1993,
      "alice": 1994,
      "sup": 1995,
      "cape": 1996,
      "jumping": 1997,
      "gray": 1998,
      "kiss": 1999,
      "embarrassed": 2000,
      "forward": 2001,
      "landed": 2002,
      "meet": 2003,
      "appoin": 2004,
      "decor": 2005,
      "kitten": 2006,
      "sticks": 2007,
      "rex": 2008,
      "tv": 2009,
      "protect": 2010,
      "polit": 2011,
      "jog": 2012,
      "disappoin": 2013,
      "hears": 2014,
      "hero": 2015,
      "success": 2016,
      "carrots": 2017,
      "clear": 2018,
      "creative": 2019,
      "polite": 2020,
      "cop": 2021,
      "mead": 2022,
      "knocked": 2023,
      "meadow": 2024,
      "sour": 2025,
      "almost": 2026,
      "breath": 2027,
      "vege": 2028,
      "vegetable": 2029,
      "glow": 2030,
      "brush": 2031,
      "gas": 2032,
      "mic": 2033,
      "ending": 2034,
      "legs": 2035,
      "scre": 2036,
      "emp": 2037,
      "plate": 2038,
      "tightly": 2039,
      "pin": 2040,
      "ashamed": 2041,
      "elly": 2042,
      "lemon": 2043,
      "pillow": 2044,
      "meant": 2045,
      "empty": 2046,
      "grew": 2047,
      "sau": 2048,
      "tells": 2049,
      "gold": 2050,
      "sheep": 2051,
      "stairs": 2052,
      "understood": 2053,
      "coura": 2054,
      "ank": 2055,
      "carried": 2056,
      "hours": 2057,
      "pay": 2058,
      "jam": 2059,
      "witch": 2060,
      "yelled": 2061,
      "disappointed": 2062,
      "save": 2063,
      "police": 2064,
      "warn": 2065,
      "nods": 2066,
      "snacks": 2067,
      "vous": 2068,
      "thankful": 2069,
      "frustr": 2070,
      "leo": 2071,
      "block": 2072,
      "chew": 2073,
      "rad": 2074,
      "jewel": 2075,
      "sparkly": 2076,
      "hospit": 2077,
      "hospital": 2078,
      "bat": 2079,
      "piz": 2080,
      "poor": 2081,
      "gets": 2082,
      "standing": 2083,
      "van": 2084,
      "ken": 2085,
      "leta": 2086,
      "usu": 2087,
      "wolf": 2088,
      "knowing": 2089,
      "tic": 2090,
      "flies": 2091,
      "easy": 2092,
      "bored": 2093,
      "seed": 2094,
      "hidden": 2095,
      "generous": 2096,
      "pri": 2097,
      "taught": 2098,
      "dino": 2099,
      "blow": 2100,
      "jelly": 2101,
      "scarf": 2102,
      "plants": 2103,
      "group": 2104,
      "minutes": 2105,
      "gun": 2106,
      "returned": 2107,
      "ni": 2108,
      "mysterious": 2109,
      "waves": 2110,
      "bedroom": 2111,
      "pizza": 2112,
      "sage": 2113,
      "pir": 2114,
      "sighed": 2115,
      "spicy": 2116,
      "frustrated": 2117,
      "fear": 2118,
      "finger": 2119,
      "fla": 2120,
      "mined": 2121,
      "determined": 2122,
      "susie": 2123,
      "powerful": 2124,
      "puzzle": 2125,
      "tro": 2126,
      "sleepy": 2127,
      "fig": 2128,
      "balls": 2129,
      "dle": 2130,
      "mid": 2131,
      "drew": 2132,
      "sandwich": 2133,
      "form": 2134,
      "note": 2135,
      "shore": 2136,
      "passed": 2137,
      "grumpy": 2138,
      "spoil": 2139,
      "packed": 2140,
      "fancy": 2141,
      "keeper": 2142,
      "bridge": 2143,
      "nervous": 2144,
      "ita": 2145,
      "messy": 2146,
      "feed": 2147,
      "tears": 2148,
      "twe": 2149,
      "saur": 2150,
      "cr": 2151,
      "gate": 2152,
      "cater": 2153,
      "caterpill": 2154,
      "tweet": 2155,
      "sold": 2156,
      "kissed": 2157,
      "closet": 2158,
      "working": 2159,
      "liz": 2160,
      "berry": 2161,
      "excite": 2162,
      "dinosaur": 2163,
      "bul": 2164,
      "gathered": 2165,
      "flag": 2166,
      "bubbles": 2167,
      "case": 2168,
      "scis": 2169,
      "scissor": 2170,
      "whisper": 2171,
      "pas": 2172,
      "yourself": 2173,
      "scissors": 2174,
      "chest": 2175,
      "week": 2176,
      "answered": 2177,
      "tig": 2178,
      "often": 2179,
      "cries": 2180,
      "ugly": 2181,
      "fre": 2182,
      "hopping": 2183,
      "twirl": 2184,
      "deer": 2185,
      "lif": 2186,
      "towel": 2187,
      "cand": 2188,
      "collect": 2189,
      "son": 2190,
      "fil": 2191,
      "caterpillar": 2192,
      "ensive": 2193,
      "expensive": 2194,
      "excitement": 2195,
      "ella": 2196,
      "space": 2197,
      "wake": 2198,
      "taken": 2199,
      "middle": 2200,
      "fu": 2201,
      "saved": 2202,
      "leg": 2203,
      "era": 2204,
      "ignor": 2205,
      "bill": 2206,
      "father": 2207,
      "class": 2208,
      "wagged": 2209,
      "crown": 2210,
      "pleased": 2211,
      "known": 2212,
      "boss": 2213,
      "pec": 2214,
      "picks": 2215,
      "boring": 2216,
      "pete": 2217,
      "fine": 2218,
      "bobby": 2219,
      "pair": 2220,
      "asking": 2221,
      "astic": 2222,
      "vase": 2223,
      "sugar": 2224,
      "ror": 2225,
      "queen": 2226,
      "ially": 2227,
      "licked": 2228,
      "dancing": 2229,
      "vegetables": 2230,
      "glass": 2231,
      "number": 2232,
      "eld": 2233,
      "change": 2234,
      "rank": 2235,
      "giggled": 2236,
      "allow": 2237,
      "rocket": 2238,
      "espec": 2239,
      "especially": 2240,
      "clown": 2241,
      "mistake": 2242,
      "ned": 2243,
      "flut": 2244,
      "nel": 2245,
      "lying": 2246,
      "illed": 2247,
      "stuff": 2248,
      "yo": 2249,
      "usual": 2250,
      "exam": 2251,
      "medic": 2252,
      "knight": 2253,
      "sweetie": 2254,
      "moving": 2255,
      "sight": 2256,
      "fake": 2257,
      "ates": 2258,
      "soar": 2259,
      "fruits": 2260,
      "wip": 2261,
      "cri": 2262,
      "drum": 2263,
      "ird": 2264,
      "mandy": 2265,
      "boys": 2266,
      "eggs": 2267,
      "glue": 2268,
      "boo": 2269,
      "medicine": 2270,
      "locked": 2271,
      "walks": 2272,
      "distance": 2273,
      "pray": 2274,
      "drawing": 2275,
      "bone": 2276,
      "bake": 2277,
      "iness": 2278,
      "dogs": 2279,
      "painting": 2280,
      "splashed": 2281,
      "yog": 2282,
      "lead": 2283,
      "rid": 2284,
      "smelly": 2285,
      "yal": 2286,
      "disappeared": 2287,
      "chir": 2288,
      "feathers": 2289,
      "match": 2290,
      "become": 2291,
      "cap": 2292,
      "moms": 2293,
      "order": 2294,
      "aunt": 2295,
      "sting": 2296,
      "lazy": 2297,
      "elderly": 2298,
      "lose": 2299,
      "thanks": 2300,
      "calling": 2301,
      "penny": 2302,
      "aged": 2303,
      "playground": 2304,
      "bathroom": 2305,
      "toes": 2306,
      "incred": 2307,
      "tory": 2308,
      "mirror": 2309,
      "weak": 2310,
      "?\".": 2311,
      "dol": 2312,
      "horn": 2313,
      "yours": 2314,
      "questions": 2315,
      "wro": 2316,
      "wrote": 2317,
      "loyal": 2318,
      "noisy": 2319,
      "nod": 2320,
      "ellie": 2321,
      "suggest": 2322,
      "dolph": 2323,
      "tiger": 2324,
      "check": 2325,
      "eager": 2326,
      "skipped": 2327,
      "lea": 2328,
      "dish": 2329,
      "lamp": 2330,
      "sell": 2331,
      "giving": 2332,
      "famous": 2333,
      "tape": 2334,
      "rela": 2335,
      "zed": 2336,
      "bella": 2337,
      "rare": 2338,
      "stones": 2339,
      "dig": 2340,
      "relax": 2341,
      "soap": 2342,
      "ruined": 2343,
      "incredible": 2344,
      "figure": 2345,
      "swan": 2346,
      "drank": 2347,
      "tub": 2348,
      "illi": 2349,
      "shows": 2350,
      "juicy": 2351,
      "izzy": 2352,
      "measure": 2353,
      "chang": 2354,
      "team": 2355,
      "itch": 2356,
      "cher": 2357,
      "those": 2358,
      "sailed": 2359,
      "comp": 2360,
      "shoot": 2361,
      "straw": 2362,
      "motor": 2363,
      "decide": 2364,
      "ppo": 2365,
      "realised": 2366,
      "umbled": 2367,
      "discovered": 2368,
      "turtle": 2369,
      "ging": 2370,
      "borrow": 2371,
      "coins": 2372,
      "tag": 2373,
      "needs": 2374,
      "micro": 2375,
      "wha": 2376,
      "adventur": 2377,
      "chicken": 2378,
      "aser": 2379,
      "fic": 2380,
      "au": 2381,
      "balance": 2382,
      "extra": 2383,
      "cleaned": 2384,
      "branches": 2385,
      "runk": 2386,
      "using": 2387,
      "asing": 2388,
      "ately": 2389,
      "mighty": 2390,
      "eye": 2391,
      "barn": 2392,
      "content": 2393,
      "adventurous": 2394,
      "lid": 2395,
      "diffic": 2396,
      "ating": 2397,
      "sadly": 2398,
      "offered": 2399,
      "cro": 2400,
      "dolphin": 2401,
      "colourful": 2402,
      "lifted": 2403,
      "organized": 2404,
      "snugg": 2405,
      "map": 2406,
      "frown": 2407,
      "vide": 2408,
      "flash": 2409,
      "toug": 2410,
      "sil": 2411,
      "bobo": 2412,
      "chase": 2413,
      "difficult": 2414,
      "eng": 2415,
      "unique": 2416,
      "cheerful": 2417,
      "zip": 2418,
      "bottom": 2419,
      "selves": 2420,
      "thick": 2421,
      "gue": 2422,
      "jeal": 2423,
      "jealous": 2424,
      "island": 2425,
      "fright": 2426,
      "happening": 2427,
      "kni": 2428,
      "knife": 2429,
      "learning": 2430,
      "hose": 2431,
      "cil": 2432,
      "smoke": 2433,
      "wrapped": 2434,
      "mrs": 2435,
      "kindness": 2436,
      "weird": 2437,
      "four": 2438,
      "ero": 2439,
      "ants": 2440,
      "gara": 2441,
      "garage": 2442,
      "twee": 2443,
      "managed": 2444,
      "vi": 2445,
      "ado": 2446,
      "pencil": 2447,
      "hurts": 2448,
      "imed": 2449,
      "squee": 2450,
      "dave": 2451,
      "ears": 2452,
      "uncle": 2453,
      "bald": 2454,
      "search": 2455,
      "crawled": 2456,
      "saying": 2457,
      "balloons": 2458,
      "coco": 2459,
      "tough": 2460,
      "meal": 2461,
      "men": 2462,
      "dizzy": 2463,
      "stri": 2464,
      "vest": 2465,
      "guess": 2466,
      "pointing": 2467,
      "apo": 2468,
      "market": 2469,
      "pal": 2470,
      "favour": 2471,
      "added": 2472,
      "batter": 2473,
      "swee": 2474,
      "whale": 2475,
      "louder": 2476,
      "tweety": 2477,
      "apolog": 2478,
      "pump": 2479,
      "successful": 2480,
      "guit": 2481,
      "norm": 2482,
      "edge": 2483,
      "harder": 2484,
      "spun": 2485,
      "already": 2486,
      "birdie": 2487,
      "lift": 2488,
      "libr": 2489,
      "unusual": 2490,
      "buzz": 2491,
      "agree": 2492,
      "favourite": 2493,
      "enjoying": 2494,
      "hats": 2495,
      "record": 2496,
      "courage": 2497,
      "terri": 2498,
      "trucks": 2499,
      "belonged": 2500,
      "boxes": 2501,
      "impressed": 2502,
      "city": 2503,
      "grown": 2504,
      "yell": 2505,
      "excitedly": 2506,
      "trunk": 2507,
      "banana": 2508,
      "ddy": 2509,
      "ail": 2510,
      "sword": 2511,
      "normal": 2512,
      "shadow": 2513,
      "choose": 2514,
      "soph": 2515,
      "laughs": 2516,
      "brilli": 2517,
      "bossy": 2518,
      "bby": 2519,
      "guitar": 2520,
      "bounce": 2521,
      "loudly": 2522,
      "ert": 2523,
      "scare": 2524,
      "brilliant": 2525,
      "goat": 2526,
      "proudly": 2527,
      "suit": 2528,
      "cab": 2529,
      "dreamed": 2530,
      "stubb": 2531,
      "buttons": 2532,
      "circles": 2533,
      "skin": 2534,
      "escape": 2535,
      "anc": 2536,
      "ilt": 2537,
      "brothers": 2538,
      "ature": 2539,
      "fool": 2540,
      "frightened": 2541,
      "against": 2542,
      "invited": 2543,
      "stream": 2544,
      "obed": 2545,
      "toma": 2546,
      "helps": 2547,
      "acce": 2548,
      "cudd": 2549,
      "happiness": 2550,
      "port": 2551,
      "fier": 2552,
      "study": 2553,
      "ancient": 2554,
      "depend": 2555,
      "means": 2556,
      "safely": 2557,
      "lola": 2558,
      "snee": 2559,
      "clay": 2560,
      "valuable": 2561,
      "stubborn": 2562,
      "slipped": 2563,
      "stru": 2564,
      "rh": 2565,
      "shark": 2566,
      "bloom": 2567,
      "crayon": 2568,
      "breakfast": 2569,
      "dreams": 2570,
      "walls": 2571,
      "pumpkin": 2572,
      "graceful": 2573,
      "lights": 2574,
      "clap": 2575,
      "obedient": 2576,
      "lean": 2577,
      "foolish": 2578,
      "sca": 2579,
      "ination": 2580,
      "falls": 2581,
      "orge": 2582,
      "knows": 2583,
      "notice": 2584,
      "fierce": 2585,
      "aced": 2586,
      "fridge": 2587,
      "nemo": 2588,
      "shape": 2589,
      "cabin": 2590,
      "fat": 2591,
      "nicely": 2592,
      "houses": 2593,
      "jac": 2594,
      "angel": 2595,
      "harm": 2596,
      "nosy": 2597,
      "dead": 2598,
      "movie": 2599,
      "office": 2600,
      "delicate": 2601,
      "design": 2602,
      "compet": 2603,
      "sty": 2604,
      "excla": 2605,
      "suggested": 2606,
      "wagon": 2607,
      "shells": 2608,
      "rubbed": 2609,
      "exclaimed": 2610,
      "competit": 2611,
      "frag": 2612,
      "crack": 2613,
      "kinds": 2614,
      "mixed": 2615,
      "useful": 2616,
      "wiped": 2617,
      "egg": 2618,
      "cart": 2619,
      "poured": 2620,
      "thoughtful": 2621,
      "tools": 2622,
      "patch": 2623,
      "clock": 2624,
      "stove": 2625,
      "sounded": 2626,
      "explored": 2627,
      "playful": 2628,
      "pi": 2629,
      "hun": 2630,
      "ducky": 2631,
      "dough": 2632,
      "sal": 2633,
      "george": 2634,
      "print": 2635,
      "!\".": 2636,
      "radi": 2637,
      "weal": 2638,
      "bags": 2639,
      "fresh": 2640,
      "abo": 2641,
      "vice": 2642,
      "above": 2643,
      "fountain": 2644,
      "guard": 2645,
      "spoiled": 2646,
      "dom": 2647,
      "lee": 2648,
      "mes": 2649,
      "fragile": 2650,
      "showing": 2651,
      "themselves": 2652,
      "changed": 2653,
      "stumbled": 2654,
      "cam": 2655,
      "bushes": 2656,
      "rescu": 2657,
      "law": 2658,
      "bees": 2659,
      "independ": 2660,
      "robe": 2661,
      "rub": 2662,
      "fingers": 2663,
      "spinning": 2664,
      "dependable": 2665,
      "scrat": 2666,
      "smaller": 2667,
      "ighted": 2668,
      "arrow": 2669,
      "dge": 2670,
      "bled": 2671,
      "orig": 2672,
      "wing": 2673,
      "roof": 2674,
      "jolly": 2675,
      "steal": 2676,
      "practice": 2677,
      "raced": 2678,
      "oc": 2679,
      "delighted": 2680,
      "tele": 2681,
      "built": 2682,
      "seem": 2683,
      "earth": 2684,
      "rode": 2685,
      "brightly": 2686,
      "gem": 2687,
      "handed": 2688,
      "ormous": 2689,
      "enormous": 2690,
      "origin": 2691,
      "acorn": 2692,
      "adm": 2693,
      "cleaning": 2694,
      "cube": 2695,
      "beep": 2696,
      "admired": 2697,
      "nur": 2698,
      "twig": 2699,
      "counted": 2700,
      "kicked": 2701,
      "toby": 2702,
      "mike": 2703,
      "sauce": 2704,
      "reg": 2705,
      "bean": 2706,
      "bitter": 2707,
      "snif": 2708,
      "original": 2709,
      "tered": 2710,
      "lli": 2711,
      "ured": 2712,
      "shone": 2713,
      "popcorn": 2714,
      "memor": 2715,
      "reminded": 2716,
      "hammer": 2717,
      "dona": 2718,
      "solve": 2719,
      "delight": 2720,
      "beak": 2721,
      "hoop": 2722,
      "lolli": 2723,
      "gum": 2724,
      "wrap": 2725,
      "dove": 2726,
      "parrot": 2727,
      "independent": 2728,
      "whispered": 2729,
      "wards": 2730,
      "yet": 2731,
      "yuck": 2732,
      "cone": 2733,
      "serious": 2734,
      "chose": 2735,
      "anut": 2736,
      "peanut": 2737,
      "post": 2738,
      "tunnel": 2739,
      "allowed": 2740,
      "hairy": 2741,
      "spring": 2742,
      "boats": 2743,
      "stronger": 2744,
      "half": 2745,
      "pota": 2746,
      "tummy": 2747,
      "spend": 2748,
      "reli": 2749,
      "cheer": 2750,
      "lollipop": 2751,
      "moder": 2752,
      "terrible": 2753,
      "œyes": 2754,
      "unknown": 2755,
      "salad": 2756,
      "painted": 2757,
      "rushed": 2758,
      "joey": 2759,
      "stal": 2760,
      "power": 2761,
      "reliable": 2762,
      "finding": 2763,
      "picking": 2764,
      "leaving": 2765,
      "tem": 2766,
      "joined": 2767,
      "tti": 2768,
      "clum": 2769,
      "gasped": 2770,
      "load": 2771,
      "strugg": 2772,
      "ended": 2773,
      "metal": 2774,
      "thinking": 2775,
      "bump": 2776,
      "tank": 2777,
      "hay": 2778,
      "os": 2779,
      "vet": 2780,
      "pon": 2781,
      "stup": 2782,
      "thunder": 2783,
      "sink": 2784,
      "view": 2785,
      "glo": 2786,
      "stupid": 2787,
      "barber": 2788,
      "goose": 2789,
      "diam": 2790,
      "kim": 2791,
      "iver": 2792,
      "diamond": 2793,
      "stat": 2794,
      "ya": 2795,
      "kay": 2796,
      "tern": 2797,
      "pirate": 2798,
      "modern": 2799,
      "fort": 2800,
      "forth": 2801,
      "ale": 2802,
      "hetti": 2803,
      "spag": 2804,
      "spaghetti": 2805,
      "advice": 2806,
      "flex": 2807,
      "regular": 2808,
      "fed": 2809,
      "wealthy": 2810,
      "erry": 2811,
      "sleeping": 2812,
      "clu": 2813,
      "toast": 2814,
      "holds": 2815,
      "marble": 2816,
      "clumsy": 2817,
      "friendship": 2818,
      "hen": 2819,
      "create": 2820,
      "paul": 2821,
      "œwhat": 2822,
      "mas": 2823,
      "polly": 2824,
      "nature": 2825,
      "yarn": 2826,
      "ery": 2827,
      "ugged": 2828,
      "telling": 2829,
      "searching": 2830,
      "ingred": 2831,
      "ingredient": 2832,
      "nobody": 2833,
      "roy": 2834,
      "ines": 2835,
      "compass": 2836,
      "march": 2837,
      "guil": 2838,
      "ley": 2839,
      "guilty": 2840,
      "ject": 2841,
      "noon": 2842,
      "crazy": 2843,
      "square": 2844,
      "sophie": 2845,
      "wed": 2846,
      "statu": 2847,
      "collec": 2848,
      "chirp": 2849,
      "cane": 2850,
      "ges": 2851,
      "engine": 2852,
      "opens": 2853,
      "stage": 2854,
      "cco": 2855,
      "beetle": 2856,
      "verse": 2857,
      "uring": 2858,
      "super": 2859,
      "flexible": 2860,
      "ribb": 2861,
      "rella": 2862,
      "driving": 2863,
      "ience": 2864,
      "croco": 2865,
      "meow": 2866,
      "shiver": 2867,
      "speed": 2868,
      "alex": 2869,
      "reading": 2870,
      "lope": 2871,
      "camera": 2872,
      "umbrella": 2873,
      "pebb": 2874,
      "dreaming": 2875,
      "popular": 2876,
      "truth": 2877,
      "rec": 2878,
      "carrying": 2879,
      "washed": 2880,
      "crocod": 2881,
      "dull": 2882,
      "rise": 2883,
      "thirst": 2884,
      "doesn": 2885,
      "lish": 2886,
      "lives": 2887,
      "missing": 2888,
      "umbers": 2889,
      "illa": 2890,
      "sne": 2891,
      "sparkled": 2892,
      "impressive": 2893,
      "brace": 2894,
      "seeds": 2895,
      "deliver": 2896,
      "careless": 2897,
      "destroy": 2898,
      "library": 2899,
      "wander": 2900,
      "tied": 2901,
      "hurry": 2902,
      "pige": 2903,
      "imagined": 2904,
      "jacket": 2905,
      "reward": 2906,
      "complet": 2907,
      "handle": 2908,
      "prize": 2909,
      "crystal": 2910,
      "goal": 2911,
      "wheels": 2912,
      "compassion": 2913,
      "pepper": 2914,
      "shocked": 2915,
      "butterflies": 2916,
      "ingredients": 2917,
      "ations": 2918,
      "ordin": 2919,
      "atta": 2920,
      "hunter": 2921,
      "ordinary": 2922,
      "fork": 2923,
      "enth": 2924,
      "œleta": 2925,
      "yay": 2926,
      "pattern": 2927,
      "poppy": 2928,
      "pup": 2929,
      "early": 2930,
      "stranger": 2931,
      "enve": 2932,
      "cran": 2933,
      "thirsty": 2934,
      "persist": 2935,
      "usi": 2936,
      "serve": 2937,
      "doors": 2938,
      "desk": 2939,
      "enthusi": 2940,
      "host": 2941,
      "numbers": 2942,
      "rece": 2943,
      "seal": 2944,
      "stack": 2945,
      "nurse": 2946,
      "discover": 2947,
      "pengu": 2948,
      "penguin": 2949,
      "pear": 2950,
      "ither": 2951,
      "peeked": 2952,
      "ahead": 2953,
      "ages": 2954,
      "screen": 2955,
      "torn": 2956,
      "stamp": 2957,
      "mole": 2958,
      "rug": 2959,
      "spilled": 2960,
      "bracelet": 2961,
      "ief": 2962,
      "cheap": 2963,
      "humble": 2964,
      "comput": 2965,
      "polish": 2966,
      "avo": 2967,
      "comb": 2968,
      "stops": 2969,
      "env": 2970,
      "given": 2971,
      "towers": 2972,
      "raven": 2973,
      "sunflower": 2974,
      "sorts": 2975,
      "aid": 2976,
      "anx": 2977,
      "intell": 2978,
      "intellig": 2979,
      "ina": 2980,
      "spoke": 2981,
      "mailbox": 2982,
      "counting": 2983,
      "cooking": 2984,
      "flashlight": 2985,
      "steps": 2986,
      "bent": 2987,
      "inde": 2988,
      "warned": 2989,
      "placed": 2990,
      "windows": 2991,
      "pale": 2992,
      "uncomfortable": 2993,
      "value": 2994,
      "travel": 2995,
      "shut": 2996,
      "rema": 2997,
      "scale": 2998,
      "statue": 2999,
      "badly": 3000,
      "older": 3001,
      "bull": 3002,
      "anxious": 3003,
      "deaf": 3004,
      "slides": 3005,
      "sses": 3006,
      "drop": 3007,
      "growing": 3008,
      "biggest": 3009,
      "flute": 3010,
      "couldna": 3011,
      "complete": 3012,
      "celebrate": 3013,
      "nail": 3014,
      "scat": 3015,
      "crocodile": 3016,
      "shad": 3017,
      "ghost": 3018,
      "beg": 3019,
      "cupboard": 3020,
      "bri": 3021,
      "crane": 3022,
      "harmless": 3023,
      "scoo": 3024,
      "beauty": 3025,
      "sofa": 3026,
      "anda": 3027,
      "supp": 3028,
      "gloom": 3029,
      "sity": 3030,
      "tled": 3031,
      "quack": 3032,
      "si": 3033,
      "oo": 3034,
      "cereal": 3035,
      "bin": 3036,
      "cakes": 3037,
      "gifted": 3038,
      "trick": 3039,
      "charming": 3040,
      "yawn": 3041,
      "persistent": 3042,
      "track": 3043,
      "pony": 3044,
      "jumps": 3045,
      "skip": 3046,
      "pretending": 3047,
      "refused": 3048,
      "flour": 3049,
      "names": 3050,
      "pho": 3051,
      "base": 3052,
      "triang": 3053,
      "reci": 3054,
      "neat": 3055,
      "octop": 3056,
      "sandwiches": 3057,
      "suppl": 3058,
      "sandy": 3059,
      "coll": 3060,
      "oked": 3061,
      "snuggled": 3062,
      "curtain": 3063,
      "five": 3064,
      "chasing": 3065,
      "question": 3066,
      "neighb": 3067,
      "pian": 3068,
      "mush": 3069,
      "crawl": 3070,
      "envelope": 3071,
      "drawer": 3072,
      "attra": 3073,
      "computer": 3074,
      "rules": 3075,
      "lively": 3076,
      "mushroom": 3077,
      "ffin": 3078,
      "gie": 3079,
      "turkey": 3080,
      "web": 3081,
      "carto": 3082,
      "cture": 3083,
      "repe": 3084,
      "scooter": 3085,
      "gloomy": 3086,
      "camp": 3087,
      "muffin": 3088,
      "ince": 3089,
      "intelligent": 3090,
      "piano": 3091,
      "lizard": 3092,
      "octopus": 3093,
      "shaking": 3094,
      "cli": 3095,
      "needle": 3096,
      "package": 3097,
      "zebra": 3098,
      "vroom": 3099,
      "annie": 3100,
      "œthat": 3101,
      "helmet": 3102,
      "return": 3103,
      "collar": 3104,
      "parade": 3105,
      "disgu": 3106,
      "alert": 3107,
      "creatures": 3108,
      "fireman": 3109,
      "sailor": 3110,
      "photo": 3111,
      "miser": 3112,
      "twirled": 3113,
      "thief": 3114,
      "henry": 3115,
      "station": 3116,
      "soldier": 3117,
      "miserable": 3118,
      "ignorant": 3119,
      "chance": 3120,
      "buddy": 3121,
      "attract": 3122,
      "tion": 3123,
      "icycle": 3124,
      "spr": 3125,
      "separ": 3126,
      "cycle": 3127,
      "zi": 3128,
      "brownie": 3129,
      "anywhere": 3130,
      "ener": 3131,
      "ceed": 3132,
      "asses": 3133,
      "bicycle": 3134,
      "trap": 3135,
      "dug": 3136,
      "gir": 3137,
      "jet": 3138,
      "stretched": 3139,
      "club": 3140,
      "por": 3141,
      "charlie": 3142,
      "chu": 3143,
      "wishes": 3144,
      "hood": 3145,
      "ckets": 3146,
      "pasta": 3147,
      "gor": 3148,
      "secon": 3149,
      "knot": 3150,
      "spir": 3151,
      "radio": 3152,
      "everyday": 3153,
      "stickers": 3154,
      "bandage": 3155,
      "cob": 3156,
      "cocoa": 3157,
      "listening": 3158,
      "helpless": 3159,
      "papa": 3160,
      "trash": 3161,
      "belt": 3162,
      "jeep": 3163,
      "pigeon": 3164,
      "bounced": 3165,
      "giraf": 3166,
      "chubby": 3167,
      "ador": 3168,
      "tooth": 3169,
      "leash": 3170,
      "otter": 3171,
      "perform": 3172,
      "practiced": 3173,
      "stretch": 3174,
      "letters": 3175,
      "ith": 3176,
      "pun": 3177,
      "attractive": 3178,
      "respectful": 3179,
      "compassionate": 3180,
      "waf": 3181,
      "impat": 3182,
      "lim": 3183,
      "stirred": 3184,
      "jerry": 3185,
      "quar": 3186,
      "thread": 3187,
      "trum": 3188,
      "somewhere": 3189,
      "summer": 3190,
      "spike": 3191,
      "further": 3192,
      "distur": 3193,
      "tweetie": 3194,
      "brocco": 3195,
      "decorate": 3196,
      "broccoli": 3197,
      "jug": 3198,
      "competitive": 3199,
      "rac": 3200,
      "scoop": 3201,
      "waffle": 3202,
      "brighter": 3203,
      "nuts": 3204,
      "impatient": 3205,
      "succeed": 3206,
      "sweethe": 3207,
      "arian": 3208,
      "knock": 3209,
      "melon": 3210,
      "pressed": 3211,
      "leop": 3212,
      "lilly": 3213,
      "hippo": 3214,
      "troubled": 3215,
      "candle": 3216,
      "mug": 3217,
      "loop": 3218,
      "sweetheart": 3219,
      "attic": 3220,
      "vine": 3221,
      "heli": 3222,
      "allig": 3223,
      "itself": 3224,
      "alligator": 3225,
      "restless": 3226,
      "aur": 3227,
      "starts": 3228,
      "ected": 3229,
      "repair": 3230,
      "shoe": 3231,
      "desser": 3232,
      "glasses": 3233,
      "cards": 3234,
      "fearful": 3235,
      "kers": 3236,
      "disgusting": 3237,
      "danny": 3238,
      "carpet": 3239,
      "adorable": 3240,
      "iest": 3241,
      "pants": 3242,
      "restaur": 3243,
      "anyway": 3244,
      "ost": 3245,
      "shouts": 3246,
      "tube": 3247,
      "tray": 3248,
      "mask": 3249,
      "ostrich": 3250,
      "screw": 3251,
      "envious": 3252,
      "mission": 3253,
      "filthy": 3254,
      "distant": 3255,
      "hook": 3256,
      "hive": 3257,
      "twist": 3258,
      "math": 3259,
      "copter": 3260,
      "helicopter": 3261,
      "monkeys": 3262,
      "giggle": 3263,
      "enthusiastic": 3264,
      "afternoon": 3265,
      "exper": 3266,
      "az": 3267,
      "cooked": 3268,
      "aked": 3269,
      "poem": 3270,
      "pipe": 3271,
      "lightning": 3272,
      "complain": 3273,
      "kang": 3274,
      "harsh": 3275,
      "dust": 3276,
      "lk": 3277,
      "paws": 3278,
      "restaurant": 3279,
      "meas": 3280,
      "kangar": 3281,
      "squash": 3282,
      "speak": 3283,
      "since": 3284,
      "admi": 3285,
      "sandbox": 3286,
      "nowhere": 3287,
      "pit": 3288,
      "leopard": 3289,
      "rice": 3290,
      "mill": 3291,
      "split": 3292,
      "backpack": 3293,
      "country": 3294,
      "unk": 3295,
      "cows": 3296,
      "viol": 3297,
      "firework": 3298,
      "trumpet": 3299,
      "aero": 3300,
      "bathtub": 3301,
      "maria": 3302,
      "barking": 3303,
      "cricket": 3304,
      "quite": 3305,
      "gn": 3306,
      "mim": 3307,
      "gorilla": 3308,
      "millie": 3309,
      "jellyfish": 3310,
      "jess": 3311,
      "whiskers": 3312,
      "happier": 3313,
      "panda": 3314,
      "ween": 3315,
      "modest": 3316,
      "admire": 3317,
      "spell": 3318,
      "human": 3319,
      "kate": 3320,
      "laun": 3321,
      "pilot": 3322,
      "sort": 3323,
      "stared": 3324,
      "violin": 3325,
      "salt": 3326,
      "cush": 3327,
      "behave": 3328,
      "didna": 3329,
      "lions": 3330,
      "meat": 3331,
      "message": 3332,
      "mule": 3333,
      "yogur": 3334,
      "grabs": 3335,
      "mimi": 3336,
      "impro": 3337,
      "xi": 3338,
      "oat": 3339,
      "dar": 3340,
      "nit": 3341,
      "vol": 3342,
      "tick": 3343,
      "dessert": 3344,
      "rolling": 3345,
      "paid": 3346,
      "cats": 3347,
      "wheat": 3348,
      "finds": 3349,
      "yogurt": 3350,
      "hedge": 3351,
      "harry": 3352,
      "castles": 3353,
      "kne": 3354,
      "reco": 3355,
      "rescue": 3356,
      "bubble": 3357,
      "swinging": 3358,
      "cact": 3359,
      "shade": 3360,
      "organize": 3361,
      "sport": 3362,
      "pulls": 3363,
      "wever": 3364,
      "however": 3365,
      "tripped": 3366,
      "size": 3367,
      "holes": 3368,
      "chan": 3369,
      "pole": 3370,
      "danger": 3371,
      "riding": 3372,
      "sheet": 3373,
      "spirit": 3374,
      "recogn": 3375,
      "roared": 3376,
      "bikes": 3377,
      "forgave": 3378,
      "pushing": 3379,
      "triangle": 3380,
      "hall": 3381,
      "purse": 3382,
      "object": 3383,
      "choice": 3384,
      "napkin": 3385,
      "tuna": 3386,
      "starting": 3387,
      "haircut": 3388,
      "scold": 3389,
      "bananas": 3390,
      "mild": 3391,
      "sock": 3392,
      "twink": 3393,
      "lands": 3394,
      "cano": 3395,
      "silver": 3396,
      "tomato": 3397,
      "energy": 3398,
      "rod": 3399,
      "bears": 3400,
      "either": 3401,
      "sher": 3402,
      "dive": 3403,
      "seeing": 3404,
      "ache": 3405,
      "œyou": 3406,
      "send": 3407,
      "comet": 3408,
      "boots": 3409,
      "frowned": 3410,
      "trains": 3411,
      "learnt": 3412,
      "porch": 3413,
      "kangaroo": 3414,
      "medal": 3415,
      "taxi": 3416,
      "volcano": 3417,
      "chalk": 3418,
      "strawberry": 3419,
      "tire": 3420,
      "muse": 3421,
      "museum": 3422,
      "prun": 3423,
      "sticker": 3424,
      "jokes": 3425,
      "chain": 3426,
      "ded": 3427,
      "palace": 3428,
      "evening": 3429,
      "fee": 3430,
      "papers": 3431,
      "tony": 3432,
      "wallet": 3433,
      "raft": 3434,
      "imagine": 3435,
      "appreci": 3436,
      "cel": 3437,
      "gain": 3438,
      "judge": 3439,
      "sweater": 3440,
      "steak": 3441,
      "burn": 3442,
      "shel": 3443,
      "shakes": 3444,
      "ino": 3445,
      "shopkeeper": 3446,
      "inse": 3447,
      "enter": 3448,
      "reinde": 3449,
      "wool": 3450,
      "climbing": 3451,
      "sprink": 3452,
      "avoc": 3453,
      "dear": 3454,
      "bang": 3455,
      "avocado": 3456,
      "barrel": 3457,
      "microphone": 3458,
      "iron": 3459,
      "james": 3460,
      "cactus": 3461,
      "smells": 3462,
      "alive": 3463,
      "neighbour": 3464,
      "laundry": 3465,
      "magnet": 3466,
      "cof": 3467,
      "wire": 3468,
      "fac": 3469,
      "resist": 3470,
      "coffee": 3471,
      "sim": 3472,
      "clapping": 3473,
      "shield": 3474,
      "troph": 3475,
      "putting": 3476,
      "planes": 3477,
      "softly": 3478,
      "gro": 3479,
      "pushes": 3480,
      "visited": 3481,
      "iling": 3482,
      "resp": 3483,
      "tricks": 3484,
      "quit": 3485,
      "sir": 3486,
      "mer": 3487,
      "notebook": 3488,
      "drawings": 3489,
      "inking": 3490,
      "support": 3491,
      "oy": 3492,
      "falling": 3493,
      "awe": 3494,
      "motorcycle": 3495,
      "reindeer": 3496,
      "colours": 3497,
      "leaned": 3498,
      "peek": 3499,
      "zoomed": 3500,
      "shovel": 3501,
      "trem": 3502,
      "checked": 3503,
      "quarrel": 3504,
      "winter": 3505,
      "marry": 3506,
      "kat": 3507,
      "shrimp": 3508,
      "belongs": 3509,
      "ucked": 3510,
      "airport": 3511,
      "pebble": 3512,
      "celery": 3513,
      "ambul": 3514,
      "maggie": 3515,
      "shelter": 3516,
      "ambulance": 3517,
      "herb": 3518,
      "aled": 3519,
      "avail": 3520,
      "ath": 3521,
      "marched": 3522,
      "counter": 3523,
      "bol": 3524,
      "aeroplane": 3525,
      "grapes": 3526,
      "nal": 3527,
      "rhino": 3528,
      "fields": 3529,
      "poke": 3530,
      "yach": 3531,
      "dishes": 3532,
      "planet": 3533,
      "barks": 3534,
      "appl": 3535,
      "vator": 3536,
      "smith": 3537,
      "soil": 3538,
      "trophy": 3539,
      "beam": 3540,
      "elevator": 3541,
      "fisher": 3542,
      "apologized": 3543,
      "skill": 3544,
      "rubber": 3545,
      "hoping": 3546,
      "costu": 3547,
      "costume": 3548,
      "onion": 3549,
      "uli": 3550,
      "drops": 3551,
      "god": 3552,
      "raining": 3553,
      "available": 3554,
      "unlock": 3555,
      "film": 3556,
      "vend": 3557,
      "feelings": 3558,
      "scope": 3559,
      "comfort": 3560,
      "unhappy": 3561,
      "page": 3562,
      "inclu": 3563,
      "yacht": 3564,
      "journal": 3565,
      "eraser": 3566,
      "minute": 3567,
      "tap": 3568,
      "cus": 3569,
      "€“": 3570,
      "mechan": 3571,
      "bulb": 3572,
      "mechanic": 3573,
      "baking": 3574,
      "task": 3575,
      "knob": 3576,
      "chur": 3577,
      "perfectly": 3578,
      "diary": 3579,
      "ax": 3580,
      "hadn": 3581,
      "eagerly": 3582,
      "ske": 3583,
      "comm": 3584,
      "cardboard": 3585,
      "player": 3586,
      "clara": 3587,
      "fog": 3588,
      "magaz": 3589,
      "closely": 3590,
      "basketball": 3591,
      "sle": 3592,
      "ense": 3593,
      "yoga": 3594,
      "coal": 3595,
      "ris": 3596,
      "petal": 3597,
      "glove": 3598,
      "frogs": 3599,
      "mee": 3600,
      "rect": 3601,
      "crash": 3602,
      "furnit": 3603,
      "furniture": 3604,
      "pted": 3605,
      "vendor": 3606,
      "church": 3607,
      "fortun": 3608,
      "bey": 3609,
      "tip": 3610,
      "stuffed": 3611,
      "imagination": 3612,
      "second": 3613,
      "treasures": 3614,
      "freez": 3615,
      "skull": 3616,
      "cooler": 3617,
      "headed": 3618,
      "breaks": 3619,
      "bree": 3620,
      "oil": 3621,
      "ah": 3622,
      "wife": 3623,
      "nament": 3624,
      "buck": 3625,
      "peach": 3626,
      "golf": 3627,
      "twis": 3628,
      "squi": 3629,
      "poss": 3630,
      "flame": 3631,
      "cups": 3632,
      "mosqui": 3633,
      "between": 3634,
      "offer": 3635,
      "factory": 3636,
      "sym": 3637,
      "switch": 3638,
      "cheek": 3639,
      "cauli": 3640,
      "potato": 3641,
      "chor": 3642,
      "ire": 3643,
      "pine": 3644,
      "hotel": 3645,
      "painter": 3646,
      "pirates": 3647,
      "swung": 3648,
      "football": 3649,
      "ides": 3650,
      "attent": 3651,
      "shouldn": 3652,
      "va": 3653,
      "disappear": 3654,
      "soc": 3655,
      "ding": 3656,
      "shouting": 3657,
      "hut": 3658,
      "weigh": 3659,
      "died": 3660,
      "tear": 3661,
      "heads": 3662,
      "mixer": 3663,
      "ornament": 3664,
      "blowing": 3665,
      "..": 3666,
      "crow": 3667,
      "skele": 3668,
      "rele": 3669,
      "laser": 3670,
      "powder": 3671,
      "fisherman": 3672,
      "folder": 3673,
      "video": 3674,
      "giraffe": 3675,
      "breathe": 3676,
      "cree": 3677,
      "parent": 3678,
      "skeleton": 3679,
      "soccer": 3680,
      "frame": 3681,
      "throws": 3682,
      "wipe": 3683,
      "created": 3684,
      "izes": 3685,
      "greed": 3686,
      "cauliflower": 3687,
      "cable": 3688,
      "lang": 3689,
      "cushion": 3690,
      "langu": 3691,
      "alright": 3692,
      "horses": 3693,
      "sunset": 3694,
      "attention": 3695,
      "aper": 3696,
      "symbol": 3697,
      "immed": 3698,
      "anchor": 3699,
      "fishing": 3700,
      "battery": 3701,
      "rhinocer": 3702,
      "popped": 3703,
      "mop": 3704,
      "ws": 3705,
      "weather": 3706,
      "maze": 3707,
      "jazz": 3708,
      "trail": 3709,
      "forgotten": 3710,
      "surren": 3711,
      "sla": 3712,
      "surrender": 3713,
      "flea": 3714,
      "celebrated": 3715,
      "luckily": 3716,
      "aff": 3717,
      "rosie": 3718,
      "sneak": 3719,
      "unpack": 3720,
      "surround": 3721,
      "slept": 3722,
      "waving": 3723,
      "intro": 3724,
      "introdu": 3725,
      "apr": 3726,
      "tina": 3727,
      "kingdom": 3728,
      "swamp": 3729,
      "tutor": 3730,
      "rhinoceros": 3731,
      "point": 3732,
      "fortunately": 3733,
      "sub": 3734,
      "points": 3735,
      "lend": 3736,
      "glowing": 3737,
      "fireplace": 3738,
      "breeze": 3739,
      "meeting": 3740,
      "sisted": 3741,
      "seas": 3742,
      "squirrels": 3743,
      "memories": 3744,
      "ckey": 3745,
      "grin": 3746,
      "hockey": 3747,
      "sunglasses": 3748,
      "reve": 3749,
      "stren": 3750,
      "streng": 3751,
      "mistakes": 3752,
      "dancer": 3753,
      "axe": 3754,
      "chickens": 3755,
      "writing": 3756,
      "zipper": 3757,
      "petals": 3758,
      "newsp": 3759,
      "iglo": 3760,
      "greedy": 3761,
      "strength": 3762,
      "ceiling": 3763,
      "snap": 3764,
      "hanging": 3765,
      "superhero": 3766,
      "cuss": 3767,
      "temple": 3768,
      "bury": 3769,
      "golden": 3770,
      "grocer": 3771,
      "chess": 3772,
      "staff": 3773,
      "sniffed": 3774,
      "experience": 3775,
      "trave": 3776,
      "argue": 3777,
      "cell": 3778,
      "eaten": 3779,
      "doggy": 3780,
      "musician": 3781,
      "discuss": 3782,
      "short": 3783,
      "baseball": 3784,
      "theater": 3785,
      "lime": 3786,
      "skirt": 3787,
      "puddles": 3788,
      "immedi": 3789,
      "microscope": 3790,
      "bouncing": 3791,
      "ouch": 3792,
      "immediately": 3793,
      "novel": 3794,
      "tol": 3795,
      "uniform": 3796,
      "miner": 3797,
      "radish": 3798,
      "san": 3799,
      "snowy": 3800,
      "comed": 3801,
      "igloo": 3802,
      "slipper": 3803,
      "shoulder": 3804,
      "lawy": 3805,
      "quietly": 3806,
      "welcomed": 3807,
      "throwing": 3808,
      "pis": 3809,
      "possible": 3810,
      "moves": 3811,
      "invest": 3812,
      "pistol": 3813,
      "plastic": 3814,
      "slippery": 3815,
      "flapped": 3816,
      "washer": 3817,
      "lotion": 3818,
      "accepted": 3819,
      "investig": 3820,
      "fought": 3821,
      "iv": 3822,
      "kayak": 3823,
      "during": 3824,
      "calls": 3825,
      "exer": 3826,
      "creek": 3827,
      "exerc": 3828,
      "mattre": 3829,
      "sticky": 3830,
      "chim": 3831,
      "served": 3832,
      "isn": 3833,
      "coats": 3834,
      "mystery": 3835,
      "pinch": 3836,
      "makeup": 3837,
      "yield": 3838,
      "uce": 3839,
      "freezer": 3840,
      "cared": 3841,
      "reef": 3842,
      "armchair": 3843,
      "wis": 3844,
      "oking": 3845,
      "fauce": 3846,
      "writ": 3847,
      "suff": 3848,
      "valley": 3849,
      "beef": 3850,
      "wigg": 3851,
      "news": 3852,
      "oak": 3853,
      "ison": 3854,
      "cherries": 3855,
      "sailing": 3856,
      "oyster": 3857,
      "tug": 3858,
      "yum": 3859,
      "regre": 3860,
      "crib": 3861,
      "applau": 3862,
      "investigate": 3863,
      "splashing": 3864,
      "œita": 3865,
      "cost": 3866,
      "rake": 3867,
      "zoe": 3868,
      "wags": 3869,
      "mattress": 3870,
      "lia": 3871,
      "presents": 3872,
      "faucet": 3873,
      "chimney": 3874,
      "dishwasher": 3875,
      "ticket": 3876,
      "mineral": 3877,
      "cobweb": 3878,
      "toile": 3879,
      "blin": 3880,
      "worth": 3881,
      "collected": 3882,
      "dressed": 3883,
      "zzy": 3884,
      "magazine": 3885,
      "mint": 3886,
      "freddy": 3887,
      "alarm": 3888,
      "sprayed": 3889,
      "veil": 3890,
      "happens": 3891,
      "separate": 3892,
      "zor": 3893,
      "appro": 3894,
      "entered": 3895,
      "shrugged": 3896,
      "captain": 3897,
      "lawyer": 3898,
      "keeping": 3899,
      "scolded": 3900,
      "rush": 3901,
      "toilet": 3902,
      "fant": 3903,
      "sigh": 3904,
      "shrink": 3905,
      "regret": 3906,
      "mosquito": 3907,
      "razor": 3908,
      "argu": 3909,
      "ruby": 3910,
      "display": 3911,
      "ms": 3912,
      "blankets": 3913,
      "sparkle": 3914,
      "vid": 3915,
      "tucked": 3916,
      "candles": 3917,
      "die": 3918,
      "burned": 3919,
      "ignored": 3920,
      "poo": 3921,
      "hon": 3922,
      "milly": 3923,
      "kisses": 3924,
      "hopes": 3925,
      "len": 3926,
      "classroom": 3927,
      "follows": 3928,
      "bathe": 3929,
      "thr": 3930,
      "missile": 3931,
      "apart": 3932,
      "easily": 3933,
      "chairs": 3934,
      "letting": 3935,
      "omed": 3936,
      "pedal": 3937,
      "language": 3938,
      "straight": 3939,
      "bother": 3940,
      "veter": 3941,
      "veterin": 3942,
      "caring": 3943,
      "accept": 3944,
      "model": 3945,
      "veterinarian": 3946,
      "stable": 3947,
      "olive": 3948,
      "jewelry": 3949,
      "trusted": 3950,
      "wardrobe": 3951,
      "sizes": 3952,
      "lab": 3953,
      "vision": 3954,
      "shower": 3955,
      "claws": 3956,
      "telephone": 3957,
      "label": 3958,
      "opera": 3959,
      "trade": 3960,
      "slice": 3961,
      "incre": 3962,
      "blinked": 3963,
      "rooms": 3964,
      "tornado": 3965,
      "puzzles": 3966,
      "lawn": 3967,
      "cabinet": 3968,
      "couraged": 3969,
      "crossed": 3970,
      "blouse": 3971,
      "newspaper": 3972,
      "kneel": 3973,
      "blueberries": 3974,
      "squeeze": 3975,
      "bookcase": 3976,
      "subway": 3977,
      "delay": 3978,
      "sham": 3979,
      "lumber": 3980,
      "recomm": 3981,
      "ement": 3982,
      "amazement": 3983,
      "grill": 3984,
      "ups": 3985,
      "mustache": 3986,
      "squeezed": 3987,
      "bookshelf": 3988,
      "shampoo": 3989,
      "fuel": 3990,
      "crawling": 3991,
      "gym": 3992,
      "gran": 3993,
      "request": 3994,
      "following": 3995,
      "blood": 3996,
      "reverse": 3997,
      "dic": 3998,
      "television": 3999,
      "padd": 4000,
      "fume": 4001,
      "perfume": 4002,
      "matches": 4003,
      "spear": 4004,
      "lic": 4005,
      "file": 4006,
      "improve": 4007,
      "holid": 4008,
      "holiday": 4009,
      "mand": 4010,
      "poked": 4011,
      "quiz": 4012,
      "war": 4013,
      "€.": 4014,
      "worms": 4015,
      "steam": 4016,
      "licks": 4017,
      "fest": 4018,
      "cliff": 4019,
      "diction": 4020,
      "tast": 4021,
      "drain": 4022,
      "demand": 4023,
      "dent": 4024,
      "prepar": 4025,
      "melt": 4026,
      "attach": 4027,
      "ringing": 4028,
      "waste": 4029,
      "llen": 4030,
      "helper": 4031,
      "nore": 4032,
      "gear": 4033,
      "unfortunately": 4034,
      "dictionary": 4035,
      "lier": 4036,
      "ga": 4037,
      "ribbon": 4038,
      "recei": 4039,
      "katie": 4040,
      "rabbits": 4041,
      "sneeze": 4042,
      "yucky": 4043,
      "decis": 4044,
      "growled": 4045,
      "begged": 4046,
      "ideas": 4047,
      "warmth": 4048,
      "invite": 4049,
      "ival": 4050,
      "birdcage": 4051,
      "hic": 4052,
      "mist": 4053,
      "rail": 4054,
      "below": 4055,
      "vehic": 4056,
      "weep": 4057,
      "calend": 4058,
      "festival": 4059,
      "married": 4060,
      "ollie": 4061,
      "fallen": 4062,
      "moments": 4063,
      "bravely": 4064,
      "pastry": 4065,
      "oas": 4066,
      "offic": 4067,
      "safety": 4068,
      "surprises": 4069,
      "understanding": 4070,
      "structure": 4071,
      "whip": 4072,
      "expected": 4073,
      "oasis": 4074,
      "laught": 4075,
      "œno": 4076,
      "sparkles": 4077,
      "calendar": 4078,
      "junk": 4079,
      "laughter": 4080,
      "wandered": 4081,
      "buckle": 4082,
      "brain": 4083,
      "hurting": 4084,
      "pastel": 4085,
      "cham": 4086,
      "pages": 4087,
      "float": 4088,
      "hearts": 4089,
      "somed": 4090,
      "someday": 4091,
      "surf": 4092,
      "root": 4093,
      "autom": 4094,
      "ignore": 4095,
      "automob": 4096,
      "strawberries": 4097,
      "buried": 4098,
      "apron": 4099,
      "reaches": 4100,
      "admir": 4101,
      "relaxed": 4102,
      "rachel": 4103,
      "myself": 4104,
      "sandcastle": 4105,
      "plates": 4106,
      "raise": 4107,
      "bers": 4108,
      "skills": 4109,
      "invit": 4110,
      "steve": 4111,
      "oper": 4112,
      "spade": 4113,
      "asht": 4114,
      "ashtray": 4115,
      "gers": 4116,
      "direct": 4117,
      "bathrobe": 4118,
      "tsy": 4119,
      "dare": 4120,
      "saving": 4121,
      "beamed": 4122,
      "'.": 4123,
      "snapped": 4124,
      "friger": 4125,
      "refriger": 4126,
      "earlier": 4127,
      "betsy": 4128,
      "weap": 4129,
      "supply": 4130,
      "socks": 4131,
      "refrigerator": 4132,
      "received": 4133,
      "icing": 4134,
      "prevent": 4135,
      "harbor": 4136,
      "ining": 4137,
      "none": 4138,
      "teaching": 4139,
      "spots": 4140,
      "jail": 4141,
      "compl": 4142,
      "thumb": 4143,
      "vanished": 4144,
      "sparkling": 4145,
      "insisted": 4146,
      "bumped": 4147,
      "abig": 4148,
      "prepare": 4149,
      "spending": 4150,
      "dried": 4151,
      "jewels": 4152,
      "frank": 4153,
      "lemonade": 4154,
      "blackboard": 4155,
      "insect": 4156,
      "beans": 4157,
      "scattered": 4158,
      "abigail": 4159,
      "settled": 4160,
      "disturb": 4161,
      "boot": 4162,
      "permission": 4163,
      "balan": 4164,
      "replace": 4165,
      "scooped": 4166,
      "wisdom": 4167,
      "encouraged": 4168,
      "yawned": 4169,
      "wine": 4170,
      "tease": 4171,
      "destroyed": 4172,
      "achie": 4173,
      "hanger": 4174,
      "aking": 4175,
      "remove": 4176,
      "pulling": 4177,
      "hardly": 4178,
      "pride": 4179,
      "ium": 4180,
      "hate": 4181,
      "solved": 4182,
      "shot": 4183,
      "license": 4184,
      "antly": 4185,
      "poison": 4186,
      "ached": 4187,
      "sits": 4188,
      "conf": 4189,
      "decorations": 4190,
      "sters": 4191,
      "washing": 4192,
      "cuddled": 4193,
      "afterwards": 4194,
      "repeat": 4195,
      "rhy": 4196,
      "wiz": 4197,
      "nation": 4198,
      "dresses": 4199,
      "respons": 4200,
      "tling": 4201,
      "vor": 4202,
      "david": 4203,
      "glit": 4204,
      "scratch": 4205,
      "punish": 4206,
      "cation": 4207,
      "guy": 4208,
      "mention": 4209,
      "chip": 4210,
      "suffer": 4211,
      "praised": 4212,
      "equ": 4213,
      "crun": 4214,
      "chirping": 4215,
      "tour": 4216,
      "hits": 4217,
      "appreciate": 4218,
      "buzzing": 4219,
      "remy": 4220,
      "patiently": 4221,
      "fastest": 4222,
      "automobile": 4223,
      "wobb": 4224,
      "warning": 4225,
      "cartoon": 4226,
      "restore": 4227,
      "bleed": 4228,
      "digg": 4229,
      "obey": 4230,
      "mall": 4231,
      "versity": 4232,
      "score": 4233,
      "nies": 4234,
      "destination": 4235,
      "taller": 4236,
      "hers": 4237,
      "climbs": 4238,
      "bling": 4239,
      "hesit": 4240,
      "sausage": 4241,
      "mmm": 4242,
      "digging": 4243,
      "hurri": 4244,
      "proper": 4245,
      "believed": 4246,
      "approached": 4247,
      "wizard": 4248,
      "fied": 4249,
      "remain": 4250,
      "university": 4251,
      "passport": 4252,
      "tore": 4253,
      "vy": 4254,
      "heat": 4255,
      "deeper": 4256,
      "homes": 4257,
      "perfor": 4258,
      "chamber": 4259,
      "turning": 4260,
      "cherry": 4261,
      "anytime": 4262,
      "struggling": 4263,
      "upstairs": 4264,
      "universe": 4265,
      "hills": 4266,
      "hes": 4267,
      "difference": 4268,
      "billboard": 4269,
      "pillows": 4270,
      "tongue": 4271,
      "infant": 4272,
      "teas": 4273,
      "provide": 4274,
      "panic": 4275,
      "thrilled": 4276,
      "sneezed": 4277,
      "lets": 4278,
      "vacation": 4279,
      "shooting": 4280,
      "twisted": 4281,
      "glowed": 4282,
      "hurricane": 4283,
      "worse": 4284,
      "sprinkles": 4285,
      "setting": 4286,
      "cin": 4287,
      "eter": 4288,
      "girls": 4289,
      "parts": 4290,
      "mometer": 4291,
      "thermometer": 4292,
      "weeks": 4293,
      "examine": 4294,
      "wherever": 4295,
      "orang": 4296,
      "airplane": 4297,
      "oranges": 4298,
      "remained": 4299,
      "ranch": 4300,
      "plays": 4301,
      "folded": 4302,
      "chores": 4303,
      "neighborhood": 4304,
      "floated": 4305,
      "leak": 4306,
      "toe": 4307,
      "rhyth": 4308,
      "nie": 4309,
      "floating": 4310,
      "grey": 4311,
      "paints": 4312,
      "copper": 4313,
      "bites": 4314,
      "ki": 4315,
      "fixing": 4316,
      "ski": 4317,
      "adium": 4318,
      "stadium": 4319,
      "measured": 4320,
      "everybody": 4321,
      "sip": 4322,
      "memory": 4323,
      "massage": 4324,
      "surrounded": 4325,
      "scatter": 4326,
      "exercise": 4327,
      "grinned": 4328,
      "!'": 4329,
      "!\",": 4330,
      "suppo": 4331,
      "supposed": 4332,
      "teaspo": 4333,
      "paused": 4334,
      "gifts": 4335,
      "beat": 4336,
      "brings": 4337,
      "fut": 4338,
      "unite": 4339,
      "actually": 4340,
      "future": 4341,
      "signs": 4342,
      "ker": 4343,
      "disco": 4344,
      "œia": 4345,
      "elephants": 4346,
      "collection": 4347,
      "marbles": 4348,
      "flood": 4349,
      "tide": 4350,
      "sunrise": 4351,
      "discovery": 4352,
      "mailman": 4353,
      "mister": 4354,
      "permit": 4355,
      "vehicle": 4356,
      "beth": 4357,
      "palm": 4358,
      "muscle": 4359,
      "crunch": 4360,
      "urge": 4361,
      "œthata": 4362,
      "gust": 4363,
      "stomach": 4364,
      "meowed": 4365,
      "rang": 4366,
      "tomatoes": 4367,
      "jan": 4368,
      "lugg": 4369,
      "fy": 4370,
      "weapon": 4371,
      "zag": 4372,
      "jogging": 4373,
      "fascin": 4374,
      "chewed": 4375,
      "decision": 4376,
      "observe": 4377,
      "cartoons": 4378,
      "sore": 4379,
      "zig": 4380,
      "luggage": 4381,
      "grape": 4382,
      "robb": 4383,
      "velvet": 4384,
      "zipped": 4385,
      "scur": 4386,
      "sunlight": 4387,
      "skipping": 4388,
      "curled": 4389,
      "collecting": 4390,
      "choo": 4391,
      "rhythm": 4392,
      "œit": 4393,
      "teaspoon": 4394,
      "sliding": 4395,
      "iers": 4396,
      "melted": 4397,
      "chirped": 4398,
      "ities": 4399,
      "spill": 4400,
      "lick": 4401,
      "ef": 4402,
      "aded": 4403,
      "pea": 4404,
      "satis": 4405,
      "safar": 4406,
      "luna": 4407,
      "xy": 4408,
      "squeak": 4409,
      "price": 4410,
      "problems": 4411,
      "zero": 4412,
      "fet": 4413,
      "mountains": 4414,
      "navy": 4415,
      "tracks": 4416,
      "emer": 4417,
      "manage": 4418,
      "growl": 4419,
      "umble": 4420,
      "receive": 4421,
      "equip": 4422,
      "unic": 4423,
      "equipment": 4424,
      "œthank": 4425,
      "potatoes": 4426,
      "admiring": 4427,
      "bricks": 4428,
      "laid": 4429,
      "nina": 4430,
      "agreement": 4431,
      "whistling": 4432,
      "watered": 4433,
      "contain": 4434,
      "thom": 4435,
      "ake": 4436,
      "twigs": 4437,
      "soldiers": 4438,
      "goodnight": 4439,
      "prune": 4440,
      "patterns": 4441,
      "kindly": 4442,
      "lap": 4443,
      "petted": 4444,
      "seats": 4445,
      "glitter": 4446,
      "history": 4447,
      "pigs": 4448,
      "ction": 4449,
      "gloves": 4450,
      "anne": 4451,
      "joyed": 4452,
      "overjoyed": 4453,
      "strangers": 4454,
      "quake": 4455,
      "officer": 4456,
      "vic": 4457,
      "beside": 4458,
      "continue": 4459,
      "ordered": 4460,
      "lest": 4461,
      "pets": 4462,
      "safari": 4463,
      "watches": 4464,
      "accidents": 4465,
      "gotten": 4466,
      "eagle": 4467,
      "network": 4468,
      "abby": 4469,
      "thomas": 4470,
      "marching": 4471,
      "operation": 4472,
      "earthquake": 4473,
      "flavor": 4474,
      "lul": 4475,
      "challen": 4476,
      "chlo": 4477,
      "prayed": 4478,
      "lip": 4479,
      "bones": 4480,
      "brid": 4481,
      "ins": 4482,
      "peered": 4483,
      "acorns": 4484,
      "cious": 4485,
      "famil": 4486,
      "invitation": 4487,
      "pip": 4488,
      "julie": 4489,
      "lips": 4490,
      "attached": 4491,
      "wooden": 4492,
      "suzy": 4493,
      "weight": 4494,
      "grocery": 4495,
      "zigzag": 4496,
      "company": 4497,
      "racing": 4498,
      "drinks": 4499,
      "fireworks": 4500,
      "josh": 4501,
      "raised": 4502,
      "disagreed": 4503,
      "orts": 4504,
      "ali": 4505,
      "chloe": 4506,
      "esca": 4507,
      "peanuts": 4508,
      "sidewalk": 4509,
      "burning": 4510,
      "floppy": 4511,
      "freeze": 4512,
      "onwards": 4513,
      "rested": 4514,
      "\",": 4515,
      "spoons": 4516,
      "ashes": 4517,
      "exact": 4518,
      "happiest": 4519,
      "dinosaurs": 4520,
      "crunchy": 4521,
      "crashed": 4522,
      "beha": 4523,
      "œwe": 4524,
      "brick": 4525,
      "whistled": 4526,
      "pies": 4527,
      "hurried": 4528,
      "wre": 4529,
      "prepared": 4530,
      "aw": 4531,
      "refre": 4532,
      "refreshed": 4533,
      "aren": 4534,
      "stitch": 4535,
      "clearing": 4536,
      "bowed": 4537,
      "whatever": 4538,
      "scratched": 4539,
      "remembers": 4540,
      "bridges": 4541,
      "menu": 4542,
      "escaped": 4543,
      "buildings": 4544,
      "planted": 4545,
      "brand": 4546,
      "comfy": 4547,
      "works": 4548,
      "revealed": 4549,
      "settle": 4550,
      "easier": 4551,
      "chat": 4552,
      "selling": 4553,
      "tha": 4554,
      "precious": 4555,
      "pupp": 4556,
      "screams": 4557,
      "jamie": 4558,
      "hated": 4559,
      "oxy": 4560,
      "muddy": 4561,
      "drinking": 4562,
      "fash": 4563,
      "recognized": 4564,
      "accompl": 4565,
      "crept": 4566,
      "rained": 4567,
      "style": 4568,
      "measuring": 4569,
      "circus": 4570,
      "six": 4571,
      "simple": 4572,
      "beds": 4573,
      "oxygen": 4574,
      "waits": 4575,
      "sings": 4576,
      "curio": 4577,
      "lecture": 4578,
      "slip": 4579,
      "shadows": 4580,
      "curiosity": 4581,
      "spaceship": 4582,
      "perched": 4583,
      "flutter": 4584,
      "weren": 4585,
      "solut": 4586,
      "sunday": 4587,
      "reminder": 4588,
      "woof": 4589,
      "ffic": 4590,
      "wonders": 4591,
      "pitch": 4592,
      "ented": 4593,
      "cutting": 4594,
      "œcan": 4595,
      "grandmother": 4596,
      "bene": 4597,
      "responsible": 4598,
      "voices": 4599,
      "cuddle": 4600,
      "umes": 4601,
      "steel": 4602,
      "cub": 4603,
      "fashion": 4604,
      "oats": 4605,
      "swo": 4606,
      "comforted": 4607,
      "apologize": 4608,
      "youa": 4609,
      "west": 4610,
      "exactly": 4611,
      "traffic": 4612,
      "soared": 4613,
      "secrets": 4614,
      "trapped": 4615,
      "peel": 4616,
      "printer": 4617,
      "disturbed": 4618,
      "landscape": 4619,
      "tastes": 4620,
      "shopping": 4621,
      "sages": 4622,
      "succeeded": 4623,
      "villag": 4624,
      "pearl": 4625,
      "olives": 4626,
      "stripes": 4627,
      "stealing": 4628,
      "hanna": 4629,
      "prints": 4630,
      "items": 4631,
      "fer": 4632,
      "bringing": 4633,
      "practicing": 4634,
      "visiting": 4635,
      "sisters": 4636,
      "loaded": 4637,
      "caut": 4638,
      "fuzzy": 4639,
      "activ": 4640,
      "zing": 4641,
      "costumes": 4642,
      "att": 4643,
      "ising": 4644,
      "answers": 4645,
      "breaking": 4646,
      "soak": 4647,
      "startled": 4648,
      "rul": 4649,
      "izing": 4650,
      "sadness": 4651,
      "nails": 4652,
      "waffles": 4653,
      "brushed": 4654,
      "mouths": 4655,
      "ric": 4656,
      "encourage": 4657,
      "monsters": 4658,
      "recommend": 4659,
      "victory": 4660,
      "fascinated": 4661,
      "mare": 4662,
      "lemons": 4663,
      "ky": 4664,
      "chef": 4665,
      "catching": 4666,
      "leather": 4667,
      "underne": 4668,
      "underground": 4669,
      "underneath": 4670,
      "waist": 4671,
      "lung": 4672,
      "unicorn": 4673,
      "beneath": 4674,
      "owned": 4675,
      "claire": 4676,
      "blueberry": 4677,
      "est": 4678,
      "nutty": 4679,
      "knel": 4680,
      "pupil": 4681,
      "knelt": 4682,
      "image": 4683,
      "nightmare": 4684,
      "villagers": 4685,
      "downstairs": 4686,
      "recognize": 4687,
      "yester": 4688,
      "unlocked": 4689,
      "ots": 4690,
      "yesterday": 4691,
      "exit": 4692,
      "inda": 4693,
      "creation": 4694,
      "tremble": 4695,
      "bank": 4696,
      "wanting": 4697,
      "adam": 4698,
      "eats": 4699,
      "doctors": 4700,
      "wreck": 4701,
      "winning": 4702,
      "soaring": 4703,
      "jogged": 4704,
      "wondering": 4705,
      "betty": 4706,
      "ctions": 4707,
      "ripped": 4708,
      "fetch": 4709,
      "bouncy": 4710,
      "mira": 4711,
      "instru": 4712,
      "herbs": 4713,
      "gained": 4714,
      "struggled": 4715,
      "stirring": 4716,
      "punished": 4717,
      "bleeding": 4718,
      "tilly": 4719,
      "nes": 4720,
      "jessie": 4721,
      "area": 4722,
      "heel": 4723,
      "examined": 4724,
      "nicer": 4725,
      "firemen": 4726,
      "machines": 4727,
      "todd": 4728,
      "planned": 4729,
      "guessed": 4730,
      "satisfied": 4731,
      "united": 4732,
      "situ": 4733,
      "piles": 4734,
      "argued": 4735,
      "sides": 4736,
      "chirpy": 4737,
      "challenge": 4738,
      "hannah": 4739,
      "increase": 4740,
      "zooming": 4741,
      "bunnies": 4742,
      "peaches": 4743,
      "tugged": 4744,
      "bare": 4745,
      "studied": 4746,
      "firefight": 4747,
      "iggy": 4748,
      "wagging": 4749,
      "keys": 4750,
      "spiders": 4751,
      "lulu": 4752,
      "rs": 4753,
      "mice": 4754,
      "teasing": 4755,
      "ases": 4756,
      "sniff": 4757,
      "deser": 4758,
      "gathering": 4759,
      "seag": 4760,
      "cot": 4761,
      "properly": 4762,
      "shivering": 4763,
      "lines": 4764,
      "twinkle": 4765,
      "winner": 4766,
      "mixing": 4767,
      "tune": 4768,
      "seagull": 4769,
      "blink": 4770,
      "outdoors": 4771,
      "œhello": 4772,
      "wid": 4773,
      "yelling": 4774,
      "twirling": 4775,
      "lux": 4776,
      "tickets": 4777,
      "release": 4778,
      "decorated": 4779,
      "pancakes": 4780,
      "slapped": 4781,
      "inch": 4782,
      "supplies": 4783,
      "luxu": 4784,
      "neighbourhood": 4785,
      "introduce": 4786,
      "sights": 4787,
      "studying": 4788,
      "susan": 4789,
      "rides": 4790,
      "brushes": 4791,
      "dolly": 4792,
      "begin": 4793,
      "rubbing": 4794,
      "burrow": 4795,
      "struck": 4796,
      "siren": 4797,
      "uses": 4798,
      "loving": 4799,
      "tonight": 4800,
      "strike": 4801,
      "prunes": 4802,
      "weighed": 4803,
      "bert": 4804,
      "released": 4805,
      "draws": 4806,
      "confident": 4807,
      "muffins": 4808,
      "reas": 4809,
      "sneaked": 4810,
      "slim": 4811,
      "realize": 4812,
      "baked": 4813,
      ".'": 4814,
      "stored": 4815,
      "ica": 4816,
      "boom": 4817,
      "instructions": 4818,
      "flap": 4819,
      "competition": 4820,
      "ana": 4821,
      "amb": 4822,
      "thata": 4823,
      "emergen": 4824,
      "pinched": 4825,
      "giggling": 4826,
      "budge": 4827,
      "printed": 4828,
      "trol": 4829,
      "opin": 4830,
      "œlook": 4831,
      "pockets": 4832,
      "strip": 4833,
      "bunch": 4834,
      "deal": 4835,
      "shoulders": 4836,
      "frosting": 4837,
      "ppers": 4838,
      "east": 4839,
      "stamps": 4840,
      "decides": 4841,
      "ecting": 4842,
      "marks": 4843,
      "ourselves": 4844,
      "bend": 4845,
      "stretching": 4846,
      "travell": 4847,
      "œthis": 4848,
      "cones": 4849,
      "chuck": 4850,
      "ents": 4851,
      "patience": 4852,
      "smar": 4853,
      "broom": 4854,
      "pears": 4855,
      "hunt": 4856,
      "poking": 4857,
      "relu": 4858,
      "reluct": 4859,
      "strings": 4860,
      "kicking": 4861,
      "scurried": 4862,
      "€”": 4863,
      "ruler": 4864,
      "carl": 4865,
      "lou": 4866,
      "honk": 4867,
      "sted": 4868,
      "youth": 4869,
      "wednes": 4870,
      "repeated": 4871,
      "claps": 4872,
      "ago": 4873,
      "motion": 4874,
      "control": 4875,
      "sorting": 4876,
      "ler": 4877,
      "kayla": 4878,
      "santa": 4879,
      "cautious": 4880,
      "ruin": 4881,
      "rr": 4882,
      "touching": 4883,
      "demanded": 4884,
      "neighbors": 4885,
      "protected": 4886,
      "linda": 4887,
      "mentioned": 4888,
      "luke": 4889,
      "fab": 4890,
      "guns": 4891,
      "keeps": 4892,
      "sweeties": 4893,
      "powers": 4894,
      "writes": 4895,
      "nibb": 4896,
      "hest": 4897,
      "tex": 4898,
      "tues": 4899,
      "zie": 4900,
      "ribbons": 4901,
      "buckets": 4902,
      "momo": 4903,
      "gree": 4904,
      "hoppy": 4905,
      "jeff": 4906,
      "reluctantly": 4907,
      "tiest": 4908,
      "prettiest": 4909,
      "soaked": 4910,
      "camping": 4911,
      "parked": 4912,
      "œwhy": 4913,
      "beard": 4914,
      "silence": 4915,
      "barely": 4916,
      "œdona": 4917,
      "horns": 4918,
      "pebbles": 4919,
      "dragons": 4920,
      "luxury": 4921,
      "crumb": 4922,
      "discovering": 4923,
      "eight": 4924,
      "riage": 4925,
      "comple": 4926,
      "dolphins": 4927,
      "babies": 4928,
      "guys": 4929,
      "zen": 4930,
      "twinkling": 4931,
      "acted": 4932,
      "result": 4933,
      "surface": 4934,
      "texture": 4935,
      "uh": 4936,
      "stole": 4937,
      "ects": 4938,
      "vies": 4939,
      "weed": 4940,
      "gazed": 4941,
      "ladybug": 4942,
      "vowed": 4943,
      "movies": 4944,
      "purred": 4945,
      "steep": 4946,
      "rocking": 4947,
      "chewing": 4948,
      "emergency": 4949,
      "shock": 4950,
      "unexpected": 4951,
      "tickle": 4952,
      "lizzy": 4953,
      "cind": 4954,
      "applauded": 4955,
      "loose": 4956,
      "entire": 4957,
      "sports": 4958,
      "contest": 4959,
      "urged": 4960,
      "dragged": 4961,
      "muscles": 4962,
      "shelves": 4963,
      "catches": 4964,
      "strum": 4965,
      "wednesday": 4966,
      "ults": 4967,
      "frozen": 4968,
      "flat": 4969,
      "fabric": 4970,
      "jenna": 4971,
      "curtains": 4972,
      "completed": 4973,
      "gg": 4974,
      "season": 4975,
      "chips": 4976,
      "wil": 4977,
      "cindy": 4978,
      "suzie": 4979,
      "curly": 4980,
      "ib": 4981,
      "nick": 4982,
      "introduced": 4983,
      "lena": 4984,
      "excuse": 4985,
      "chases": 4986,
      "direction": 4987,
      "ledge": 4988,
      "snail": 4989,
      "importance": 4990,
      "solution": 4991,
      "librarian": 4992,
      "wound": 4993,
      "highest": 4994,
      "figured": 4995,
      "screaming": 4996,
      "shivered": 4997,
      "hugging": 4998,
      "pouring": 4999,
      "rocked": 5000,
      "rust": 5001,
      "roaring": 5002,
      "achieve": 5003,
      "staring": 5004,
      "cough": 5005,
      "include": 5006,
      "sled": 5007,
      "theirs": 5008,
      "stom": 5009,
      "œoh": 5010,
      "sorted": 5011,
      "drives": 5012,
      "slimy": 5013,
      "ham": 5014,
      "master": 5015,
      "vin": 5016,
      "planets": 5017,
      "moo": 5018,
      "exha": 5019,
      "rings": 5020,
      "rainbows": 5021,
      "cana": 5022,
      "balancing": 5023,
      "policeman": 5024,
      "awesome": 5025,
      "momma": 5026,
      "jon": 5027,
      "mater": 5028,
      "lied": 5029,
      "ads": 5030,
      "tuesday": 5031,
      "material": 5032,
      "exhau": 5033,
      "safer": 5034,
      "effort": 5035,
      "knowledge": 5036,
      "foods": 5037,
      "situation": 5038,
      "snowball": 5039,
      "pinky": 5040,
      "homework": 5041,
      "matched": 5042,
      "passing": 5043,
      "flags": 5044,
      "sighs": 5045,
      "plent": 5046,
      "cast": 5047,
      "wink": 5048,
      "irts": 5049,
      "shined": 5050,
      "dared": 5051,
      "plenty": 5052,
      "towels": 5053,
      "zookeeper": 5054,
      "radishes": 5055,
      "cts": 5056,
      "rip": 5057,
      "rusty": 5058,
      "bravery": 5059,
      "although": 5060,
      "reaching": 5061,
      "thre": 5062,
      "sausages": 5063,
      "resting": 5064,
      "truly": 5065,
      "pretends": 5066,
      "cheering": 5067,
      "accomplish": 5068,
      "dies": 5069,
      "wedding": 5070,
      "swoop": 5071,
      "matt": 5072,
      "yeah": 5073,
      "goals": 5074,
      "marriage": 5075,
      "reveal": 5076,
      "mies": 5077,
      "dusty": 5078,
      "jamas": 5079,
      "jacob": 5080,
      "vanish": 5081,
      "tara": 5082,
      "threat": 5083,
      "worker": 5084,
      "baa": 5085,
      "patted": 5086,
      "packing": 5087,
      "exhausted": 5088,
      "lizz": 5089,
      "caused": 5090,
      "paintings": 5091,
      "colored": 5092,
      "student": 5093,
      "cuts": 5094,
      "zes": 5095,
      "spraying": 5096,
      "arguing": 5097,
      "blooming": 5098,
      "shh": 5099,
      "sobb": 5100,
      "sweets": 5101,
      "piggy": 5102,
      "matching": 5103,
      "growling": 5104,
      "jects": 5105,
      "waiter": 5106,
      "crumbs": 5107,
      "...": 5108,
      "struggle": 5109,
      "sticking": 5110,
      "nect": 5111,
      "lizzie": 5112,
      "markers": 5113,
      "written": 5114,
      "kneeled": 5115,
      "mane": 5116,
      "paddled": 5117,
      "cubes": 5118,
      "tails": 5119,
      "sway": 5120,
      "jessica": 5121,
      "sen": 5122,
      "organizing": 5123,
      "inviting": 5124,
      "rescued": 5125,
      "nets": 5126,
      "fir": 5127,
      "traveled": 5128,
      "julia": 5129,
      "creating": 5130,
      "bottles": 5131,
      "princesses": 5132,
      "singer": 5133,
      "guest": 5134,
      "roads": 5135,
      "learns": 5136,
      "dresser": 5137,
      "inky": 5138,
      "project": 5139,
      "pipp": 5140,
      "ripe": 5141,
      "dais": 5142,
      "disagree": 5143,
      "trembling": 5144,
      "regretted": 5145,
      "bars": 5146,
      "bloomed": 5147,
      "workers": 5148,
      "aster": 5149,
      "replaced": 5150,
      "abb": 5151,
      "arrive": 5152,
      "pots": 5153,
      "desp": 5154,
      "recorded": 5155,
      "pencils": 5156,
      "despite": 5157,
      "daisies": 5158,
      "ranger": 5159,
      "included": 5160,
      "prayer": 5161,
      "fairies": 5162,
      "observed": 5163,
      "faced": 5164,
      "vided": 5165,
      "lamb": 5166,
      "activities": 5167,
      "wires": 5168,
      "darkness": 5169,
      "opening": 5170,
      "firm": 5171,
      "timer": 5172,
      "leader": 5173,
      "poems": 5174,
      "pajamas": 5175,
      "seesaw": 5176,
      "folding": 5177,
      "penguins": 5178,
      "worries": 5179,
      "removed": 5180,
      "peeking": 5181,
      "ventured": 5182,
      "relief": 5183,
      "stare": 5184,
      "countryside": 5185,
      "usually": 5186,
      "polishing": 5187,
      "completely": 5188,
      "snakes": 5189,
      "angled": 5190,
      "inst": 5191,
      "ud": 5192,
      "wasted": 5193,
      "reply": 5194,
      "belly": 5195,
      "storekeeper": 5196,
      "flames": 5197,
      "miles": 5198,
      "cautiously": 5199,
      "rees": 5200,
      "fault": 5201,
      "owners": 5202,
      "crabs": 5203,
      "copy": 5204,
      "johnson": 5205,
      "agrees": 5206,
      "squeaky": 5207,
      "slap": 5208,
      "partic": 5209,
      "applaud": 5210,
      "quacked": 5211,
      "stern": 5212,
      "kites": 5213,
      "gar": 5214,
      "becoming": 5215,
      "rubs": 5216,
      "helme": 5217,
      "rance": 5218,
      "helmets": 5219,
      "wasna": 5220,
      "gig": 5221,
      "scales": 5222,
      "whee": 5223,
      "scra": 5224,
      "mun": 5225,
      "larry": 5226,
      "jun": 5227,
      "melting": 5228,
      "thro": 5229,
      "healed": 5230,
      "squealed": 5231,
      "logs": 5232,
      "coloured": 5233,
      "snat": 5234,
      "shaped": 5235,
      "lollipops": 5236,
      "opinion": 5237,
      "tractor": 5238,
      "stem": 5239,
      "throat": 5240,
      "hoo": 5241,
      "jay": 5242,
      "marked": 5243,
      "cash": 5244,
      "jones": 5245,
      "roses": 5246,
      "dipped": 5247,
      "crowd": 5248,
      "staying": 5249,
      "seems": 5250,
      "knights": 5251,
      "granny": 5252,
      "rist": 5253,
      "bon": 5254,
      "teaches": 5255,
      "groceries": 5256,
      "polished": 5257,
      "rolls": 5258,
      "naps": 5259,
      "valued": 5260,
      "provided": 5261,
      "interested": 5262,
      "freed": 5263,
      "dentist": 5264,
      "baker": 5265,
      "bumpy": 5266,
      "cky": 5267,
      "filling": 5268,
      "june": 5269,
      "hops": 5270,
      "somebody": 5271,
      "blows": 5272,
      "christ": 5273,
      "cracked": 5274,
      "sophia": 5275,
      "cure": 5276,
      "wallow": 5277,
      "faraway": 5278,
      "lau": 5279,
      "swallow": 5280,
      "signed": 5281,
      "desert": 5282,
      "protecting": 5283,
      "actions": 5284,
      "misses": 5285,
      "winked": 5286,
      "wandering": 5287,
      "robo": 5288,
      "balanced": 5289,
      "delivery": 5290,
      "pastries": 5291,
      "crackers": 5292,
      "bess": 5293,
      "younger": 5294,
      "closes": 5295,
      "chuckled": 5296,
      "listens": 5297,
      "single": 5298,
      "roots": 5299,
      "beads": 5300,
      "iar": 5301,
      "coo": 5302,
      "particular": 5303,
      "familiar": 5304,
      "œwhata": 5305,
      "directions": 5306,
      "œmommy": 5307,
      "splashes": 5308,
      "itchy": 5309,
      "pastels": 5310,
      "cous": 5311,
      "abbie": 5312,
      "froze": 5313,
      "ron": 5314,
      "snuggles": 5315,
      "restored": 5316,
      "snowballs": 5317,
      "gaze": 5318,
      "gigi": 5319,
      "fluttered": 5320,
      "sweat": 5321,
      "forehead": 5322,
      "lined": 5323,
      "swooped": 5324,
      "laura": 5325,
      "suitcase": 5326,
      "toss": 5327,
      "wiggled": 5328,
      "christmas": 5329,
      "remo": 5330,
      "swirl": 5331,
      "sparky": 5332,
      "pam": 5333,
      "acting": 5334,
      "refle": 5335,
      "slam": 5336,
      "photos": 5337,
      "nectar": 5338,
      "mickey": 5339,
      "awake": 5340,
      "€˜": 5341,
      "neither": 5342,
      "celebration": 5343,
      "pedals": 5344,
      "trips": 5345,
      "speaking": 5346,
      "backed": 5347,
      "tallest": 5348,
      "cashier": 5349,
      "determin": 5350,
      "remote": 5351,
      "chris": 5352,
      "darker": 5353,
      "ences": 5354,
      "determination": 5355,
      "ility": 5356,
      "complaining": 5357,
      "sequ": 5358,
      "seven": 5359,
      "secure": 5360,
      "--": 5361,
      "pandy": 5362,
      "sneaky": 5363,
      "insist": 5364,
      "milo": 5365,
      "knees": 5366,
      "recording": 5367,
      "month": 5368,
      "sew": 5369,
      "videos": 5370,
      "rockets": 5371,
      "joyful": 5372,
      "pause": 5373,
      "indeed": 5374,
      "cted": 5375,
      "health": 5376,
      "pleasure": 5377,
      "entrance": 5378,
      "accomplishment": 5379,
      "liqu": 5380,
      "liquid": 5381,
      "ongest": 5382,
      "?\",": 5383,
      "emmy": 5384,
      "lies": 5385,
      "rob": 5386,
      "shirts": 5387,
      "glee": 5388,
      "buzzy": 5389,
      "delivered": 5390,
      "beyond": 5391,
      "joking": 5392,
      "wears": 5393,
      "insects": 5394,
      "mesmer": 5395,
      "drif": 5396,
      "mikey": 5397,
      "flake": 5398,
      "ks": 5399,
      "tricked": 5400,
      "cheeks": 5401,
      "stella": 5402,
      "consequ": 5403,
      "hissed": 5404,
      "stays": 5405,
      "fits": 5406,
      "bowls": 5407,
      "fes": 5408,
      "rule": 5409,
      "farther": 5410,
      "masks": 5411,
      "hearing": 5412,
      "œcome": 5413,
      "tricky": 5414,
      "attack": 5415,
      "scaring": 5416,
      "burst": 5417,
      "tickled": 5418,
      "sobbed": 5419,
      "smiley": 5420,
      "sandcastles": 5421,
      "stolen": 5422,
      "giraffes": 5423,
      "jas": 5424,
      "expect": 5425,
      "adding": 5426,
      "sense": 5427,
      "mance": 5428,
      "performance": 5429,
      "covers": 5430,
      "instrum": 5431,
      "gobb": 5432,
      "talented": 5433,
      "calmed": 5434,
      "sof": 5435,
      "handful": 5436,
      "robbie": 5437,
      "?'": 5438,
      "batteries": 5439,
      "darling": 5440,
      "intri": 5441,
      "maya": 5442,
      "tangled": 5443,
      "candies": 5444,
      "smarter": 5445,
      "scarves": 5446,
      "pered": 5447,
      "magnets": 5448,
      "toed": 5449,
      "ene": 5450,
      "choices": 5451,
      "behavi": 5452,
      "leading": 5453,
      "achieved": 5454,
      "liza": 5455,
      "stain": 5456,
      "sale": 5457,
      "bumps": 5458,
      "consequences": 5459,
      "yourselves": 5460,
      "firefighters": 5461,
      "impossible": 5462,
      "reads": 5463,
      "robby": 5464,
      "tigers": 5465,
      "hesitated": 5466,
      "behaved": 5467,
      "clowns": 5468,
      "badge": 5469,
      "xture": 5470,
      "wrist": 5471,
      "itor": 5472,
      "cans": 5473,
      "beginning": 5474,
      "paddle": 5475,
      "hell": 5476,
      "mixture": 5477,
      "explorers": 5478,
      "aut": 5479,
      "mushrooms": 5480,
      "salty": 5481,
      "bak": 5482,
      "ryan": 5483,
      "kicks": 5484,
      "belle": 5485,
      "outfit": 5486,
      "martha": 5487,
      "weeping": 5488,
      "bakery": 5489,
      "recommended": 5490,
      "œlet": 5491,
      "rever": 5492,
      "bobb": 5493,
      "gracefully": 5494,
      "seeker": 5495,
      "ners": 5496,
      "seashell": 5497,
      "click": 5498,
      "karen": 5499,
      "œyoua": 5500,
      "thorn": 5501,
      "improved": 5502,
      "robert": 5503,
      "swept": 5504,
      "flapping": 5505,
      "deserve": 5506,
      "stroked": 5507,
      "ters": 5508,
      "swims": 5509,
      "wipes": 5510,
      "talent": 5511,
      "complained": 5512,
      "intrigu": 5513,
      "hider": 5514,
      "third": 5515,
      "steer": 5516,
      "orted": 5517,
      "abi": 5518,
      "dots": 5519,
      "knocks": 5520,
      "objects": 5521,
      "seconds": 5522,
      "parties": 5523,
      "teased": 5524,
      "cupcakes": 5525,
      "rum": 5526,
      "birdy": 5527,
      "travelled": 5528,
      "wrapping": 5529,
      "basement": 5530,
      "heading": 5531,
      "blings": 5532,
      "ping": 5533,
      "hoot": 5534,
      "horiz": 5535,
      "puppies": 5536,
      "œhi": 5537,
      "fever": 5538,
      "iled": 5539,
      "custom": 5540,
      "snuck": 5541,
      "dip": 5542,
      "jackets": 5543,
      "mabel": 5544,
      "horizon": 5545,
      "siblings": 5546,
      "celebrating": 5547,
      "gems": 5548,
      "drums": 5549,
      "marker": 5550,
      "hallway": 5551,
      "lighter": 5552,
      "gina": 5553,
      "snatched": 5554,
      "paying": 5555,
      "fluttering": 5556,
      "bows": 5557,
      "œdo": 5558,
      "jacky": 5559,
      "yells": 5560,
      "wouldna": 5561,
      "jojo": 5562,
      "bedtime": 5563,
      "among": 5564,
      "rover": 5565,
      "raind": 5566,
      "raindro": 5567,
      "arrows": 5568,
      "janie": 5569,
      "pres": 5570,
      "ral": 5571,
      "wadd": 5572,
      "finn": 5573,
      "ruining": 5574,
      "nine": 5575,
      "concer": 5576,
      "anno": 5577,
      "annoy": 5578,
      "rumble": 5579,
      "avoid": 5580,
      "igning": 5581,
      "buying": 5582,
      "cent": 5583,
      "auntie": 5584,
      "œwow": 5585,
      "families": 5586,
      "lettu": 5587,
      "lettuce": 5588,
      "nan": 5589,
      "squish": 5590,
      "intrigued": 5591,
      "dollhouse": 5592,
      "rivers": 5593,
      "scrubbed": 5594,
      "needles": 5595,
      "creamy": 5596,
      "peacefully": 5597,
      "scratches": 5598,
      "ivity": 5599,
      "widened": 5600,
      "drifted": 5601,
      "tasks": 5602,
      "source": 5603,
      "shoo": 5604,
      "conne": 5605,
      "fid": 5606,
      "treehouse": 5607,
      "wins": 5608,
      "wona": 5609,
      "hides": 5610,
      "players": 5611,
      "willing": 5612,
      "ply": 5613,
      "losing": 5614,
      "mering": 5615,
      "ralph": 5616,
      "repa": 5617,
      "hopeful": 5618,
      "cuddly": 5619,
      "echo": 5620,
      "lower": 5621,
      "rewarded": 5622,
      "shrinking": 5623,
      "ka": 5624,
      "creativity": 5625,
      "iles": 5626,
      "minerals": 5627,
      "binky": 5628,
      "kiki": 5629,
      "itu": 5630,
      "icked": 5631,
      "repaired": 5632,
      "temper": 5633,
      "onions": 5634,
      "limes": 5635,
      "including": 5636,
      "hog": 5637,
      "sadie": 5638,
      "tis": 5639,
      "diving": 5640,
      "imagining": 5641,
      "maddie": 5642,
      "jackie": 5643,
      "gross": 5644,
      "rising": 5645,
      "rocky": 5646,
      "tiptoed": 5647,
      "visitor": 5648,
      "tapped": 5649,
      "grassy": 5650,
      "decorating": 5651,
      "swans": 5652,
      "creations": 5653,
      "cong": 5654,
      "merry": 5655,
      "ops": 5656,
      "peppers": 5657,
      "chop": 5658,
      "chefs": 5659,
      "congrat": 5660,
      "printing": 5661,
      "separated": 5662,
      "sprinkled": 5663,
      "glu": 5664,
      "granted": 5665,
      "earn": 5666,
      "snowflake": 5667,
      "ew": 5668,
      "hael": 5669,
      "michael": 5670,
      "flop": 5671,
      "arran": 5672,
      "tram": 5673,
      "grabbing": 5674,
      "fears": 5675,
      "œmy": 5676,
      "dor": 5677,
      "pans": 5678,
      "congratul": 5679,
      "judy": 5680,
      "mate": 5681,
      "simon": 5682,
      "stit": 5683,
      "screwdriver": 5684,
      "stomped": 5685,
      "hea": 5686,
      "backwards": 5687,
      "pouted": 5688,
      "forgiven": 5689,
      "windy": 5690,
      "squares": 5691,
      "suits": 5692,
      "serving": 5693,
      "itude": 5694,
      "dama": 5695,
      "forts": 5696,
      "hesitant": 5697,
      "damage": 5698,
      "dot": 5699,
      "stung": 5700,
      "spice": 5701,
      "planning": 5702,
      "unpacked": 5703,
      "snowmen": 5704,
      "rup": 5705,
      "artist": 5706,
      "oli": 5707,
      "bluey": 5708,
      "promises": 5709,
      "slower": 5710,
      "raindrops": 5711,
      "center": 5712,
      "beloved": 5713,
      "marie": 5714,
      "ments": 5715,
      "ford": 5716,
      "oops": 5717,
      "whoever": 5718,
      "materials": 5719,
      "heavier": 5720,
      "item": 5721,
      "pointy": 5722,
      "audi": 5723,
      "curiously": 5724,
      "growls": 5725,
      "trampo": 5726,
      "peck": 5727,
      "wrink": 5728,
      "site": 5729,
      "wiping": 5730,
      "praying": 5731,
      "surroundings": 5732,
      "cousin": 5733,
      "haw": 5734,
      "recipe": 5735,
      "audience": 5736,
      "hedgehog": 5737,
      "rustling": 5738,
      "blocking": 5739,
      "neighbours": 5740,
      "nor": 5741,
      "temperature": 5742,
      "couple": 5743,
      "slices": 5744,
      "gobbled": 5745,
      "meg": 5746,
      "weekend": 5747,
      "ornaments": 5748,
      "trampoline": 5749,
      "helpers": 5750,
      "wobbled": 5751,
      "sunflowers": 5752,
      "designed": 5753,
      "sparks": 5754,
      "discussed": 5755,
      "vanilla": 5756,
      "shim": 5757,
      "sailboat": 5758,
      "nif": 5759,
      "zara": 5760,
      "noses": 5761,
      "whata": 5762,
      "dreamt": 5763,
      "stool": 5764,
      "corners": 5765,
      "blu": 5766,
      "racco": 5767,
      "10": 5768,
      "hus": 5769,
      "pecked": 5770,
      "slammed": 5771,
      "hitting": 5772,
      "wea": 5773,
      "afford": 5774,
      "silent": 5775,
      "forks": 5776,
      "marsh": 5777,
      "action": 5778,
      "streets": 5779,
      "dads": 5780,
      "spon": 5781,
      "remembering": 5782,
      "tissue": 5783,
      "ets": 5784,
      "meals": 5785,
      "aside": 5786,
      "changing": 5787,
      "zoey": 5788,
      "sponge": 5789,
      "requested": 5790,
      "reflection": 5791,
      "pad": 5792,
      "zipping": 5793,
      "ref": 5794,
      "warnings": 5795,
      "plans": 5796,
      "dances": 5797,
      "leaning": 5798,
      "screws": 5799,
      "duckling": 5800,
      "scam": 5801,
      "coloring": 5802,
      "scor": 5803,
      "spreading": 5804,
      "dollars": 5805,
      "magician": 5806,
      "fido": 5807,
      "prett": 5808,
      "skunk": 5809,
      "breathed": 5810,
      "astron": 5811,
      "greeted": 5812,
      "bits": 5813,
      "adult": 5814,
      "amelia": 5815,
      "peep": 5816,
      "sation": 5817,
      "forgets": 5818,
      "shops": 5819,
      "tunnels": 5820,
      "sailors": 5821,
      "asm": 5822,
      "thrown": 5823,
      "pose": 5824,
      "chosen": 5825,
      "twice": 5826,
      "hour": 5827,
      "gardener": 5828,
      "snuggle": 5829,
      "prettier": 5830,
      "rotted": 5831,
      "astronaut": 5832,
      "potion": 5833,
      "raincoat": 5834,
      "spikes": 5835,
      "tage": 5836,
      "husband": 5837,
      "spat": 5838,
      "touches": 5839,
      "lings": 5840,
      "enthusiasm": 5841,
      "grandparents": 5842,
      "superheroes": 5843,
      "swords": 5844,
      "daring": 5845,
      "rotten": 5846,
      "cuddles": 5847,
      "mallow": 5848,
      "sever": 5849,
      "antic": 5850,
      "reason": 5851,
      "wishing": 5852,
      "pens": 5853,
      "certain": 5854,
      "wraps": 5855,
      "dod": 5856,
      "spoonful": 5857,
      "least": 5858,
      "bras": 5859,
      "correct": 5860,
      "marshmallow": 5861,
      "steady": 5862,
      "elle": 5863,
      "zebras": 5864,
      "borrowed": 5865,
      "forgetting": 5866,
      "counts": 5867,
      "davey": 5868,
      "sending": 5869,
      "œbut": 5870,
      "courag": 5871,
      "feeding": 5872,
      "gee": 5873,
      "wend": 5874,
      "heroes": 5875,
      "encourag": 5876,
      "frosty": 5877,
      "guests": 5878,
      "bless": 5879,
      "bodies": 5880,
      "glim": 5881,
      "mesmerized": 5882,
      "mints": 5883,
      "flavors": 5884,
      "neare": 5885,
      "raccoon": 5886,
      "ounced": 5887,
      "stro": 5888,
      "cers": 5889,
      "charac": 5890,
      "stroke": 5891,
      "wendy": 5892,
      "dam": 5893,
      "buzzed": 5894,
      "neatly": 5895,
      "handsome": 5896,
      "baths": 5897,
      "grows": 5898,
      "napkins": 5899,
      "flight": 5900,
      "amed": 5901,
      "boards": 5902,
      "delivering": 5903,
      "refresh": 5904,
      "tested": 5905,
      "feast": 5906,
      "foc": 5907,
      "misch": 5908,
      "bage": 5909,
      "months": 5910,
      "ition": 5911,
      "dived": 5912,
      "saman": 5913,
      "samantha": 5914,
      "rains": 5915,
      "holly": 5916,
      "politely": 5917,
      "suffering": 5918,
      "onward": 5919,
      "alien": 5920,
      "sneezing": 5921,
      "warmer": 5922,
      "defe": 5923,
      "maddy": 5924,
      "biting": 5925,
      "throughout": 5926,
      "stands": 5927,
      "unsure": 5928,
      "thud": 5929,
      "honked": 5930,
      "wiggle": 5931,
      "ruth": 5932,
      "lungs": 5933,
      "geese": 5934,
      "rushing": 5935,
      "hal": 5936,
      "crashing": 5937,
      "plucked": 5938,
      "toddler": 5939,
      "joining": 5940,
      "bessie": 5941,
      "poster": 5942,
      "seaweed": 5943,
      "lifts": 5944,
      "matters": 5945,
      "oatmeal": 5946,
      "watering": 5947,
      "pops": 5948,
      "refreshing": 5949,
      "preparing": 5950,
      "ties": 5951,
      "students": 5952,
      "increased": 5953,
      "puff": 5954,
      "iley": 5955,
      "crew": 5956,
      "ropes": 5957,
      "swallowed": 5958,
      "glued": 5959,
      "fia": 5960,
      "swa": 5961,
      "express": 5962,
      "shall": 5963,
      "respond": 5964,
      "tab": 5965,
      "whispers": 5966,
      "œmom": 5967,
      "triangles": 5968,
      "dani": 5969,
      "freedom": 5970,
      "hopper": 5971,
      "toaster": 5972,
      "postman": 5973,
      "amoun": 5974,
      "wobbly": 5975,
      "lessons": 5976,
      "hawk": 5977,
      "performed": 5978,
      "starfish": 5979,
      "presses": 5980,
      "smelling": 5981,
      "adults": 5982,
      "œwell": 5983,
      "leads": 5984,
      "trembled": 5985,
      "bully": 5986,
      "obeyed": 5987,
      "cushions": 5988,
      "wri": 5989,
      "puppet": 5990,
      "dancers": 5991,
      "bubba": 5992,
      "jod": 5993,
      "wrigg": 5994,
      "humans": 5995,
      "confli": 5996,
      "talks": 5997,
      "resisted": 5998,
      "panicked": 5999,
      "sniffs": 6000,
      "scraped": 6001,
      "focused": 6002,
      "allo": 6003,
      "napping": 6004,
      "necklaces": 6005,
      "megan": 6006,
      "nu": 6007,
      "slips": 6008,
      "firmly": 6009,
      "softer": 6010,
      "behaving": 6011,
      "œwhere": 6012,
      "waddled": 6013,
      "firefly": 6014,
      "nervously": 6015,
      "mina": 6016,
      "quarreling": 6017,
      "encouraging": 6018,
      "dropping": 6019,
      "instantly": 6020,
      "formed": 6021,
      "lifting": 6022,
      "worn": 6023,
      "frowning": 6024,
      "tables": 6025,
      "pigeons": 6026,
      "tar": 6027,
      "nood": 6028,
      "drawers": 6029,
      "onna": 6030,
      "woo": 6031,
      "iona": 6032,
      "thump": 6033,
      "sofia": 6034,
      "belts": 6035,
      "firefighter": 6036,
      "faded": 6037,
      "oky": 6038,
      "freddie": 6039,
      "scampered": 6040,
      "drivers": 6041,
      "eva": 6042,
      "rout": 6043,
      "polar": 6044,
      "respected": 6045,
      "cotton": 6046,
      "fiona": 6047,
      "drawn": 6048,
      "scient": 6049,
      "within": 6050,
      "flopsy": 6051,
      "pennies": 6052,
      "spins": 6053,
      "appreciation": 6054,
      "avocados": 6055,
      "robber": 6056,
      "pours": 6057,
      "sured": 6058,
      "surprising": 6059,
      "ev": 6060,
      "thoughts": 6061,
      "stacked": 6062,
      "twinkled": 6063,
      "tam": 6064,
      "meanwhile": 6065,
      "leapt": 6066,
      "blast": 6067,
      "elf": 6068,
      "froggy": 6069,
      "ists": 6070,
      "waterfall": 6071,
      "speedy": 6072,
      "overcome": 6073,
      "katy": 6074,
      "wiggly": 6075,
      "playtime": 6076,
      "forgiving": 6077,
      "notes": 6078,
      "œok": 6079,
      "bravest": 6080,
      "strongest": 6081,
      "battle": 6082,
      "tricycle": 6083,
      "whose": 6084,
      "loading": 6085,
      "manag": 6086,
      "cobwebs": 6087,
      "acle": 6088,
      "gonna": 6089,
      "jean": 6090,
      "cosy": 6091,
      "sharks": 6092,
      "conver": 6093,
      "til": 6094,
      "œif": 6095,
      "prove": 6096,
      "bells": 6097,
      "œokay": 6098,
      "pumpkins": 6099,
      "maid": 6100,
      "grant": 6101,
      "performing": 6102,
      "wept": 6103,
      "squeezing": 6104,
      "ease": 6105,
      "jonny": 6106,
      "colder": 6107,
      "echoed": 6108,
      "scored": 6109,
      "garbage": 6110,
      "wakes": 6111,
      "playroom": 6112,
      "angels": 6113,
      "robots": 6114,
      "squishy": 6115,
      "sank": 6116,
      "designs": 6117,
      "blinking": 6118,
      "pture": 6119,
      "probab": 6120,
      "probably": 6121,
      "giggles": 6122,
      "ram": 6123,
      "amount": 6124,
      "robin": 6125,
      "flown": 6126,
      "healing": 6127,
      "marshmallows": 6128,
      "sweetest": 6129,
      "sadd": 6130,
      "guide": 6131,
      "assm": 6132,
      "sid": 6133,
      "explorer": 6134,
      "oysters": 6135,
      "ggy": 6136,
      "mae": 6137,
      "tying": 6138,
      "tossed": 6139,
      "causing": 6140,
      "unity": 6141,
      "asty": 6142,
      "engers": 6143,
      "twisty": 6144,
      "dred": 6145,
      "hundred": 6146,
      "...\"": 6147,
      "fleas": 6148,
      "shown": 6149,
      "louise": 6150,
      "pins": 6151,
      "spices": 6152,
      "witched": 6153,
      "puzzled": 6154,
      "passengers": 6155,
      "coral": 6156,
      "tighter": 6157,
      "passports": 6158,
      "yielded": 6159,
      "patches": 6160,
      "?!\"": 6161,
      "pound": 6162,
      "py": 6163,
      "kittens": 6164,
      "reversed": 6165,
      "grandchild": 6166,
      "tum": 6167,
      "maker": 6168,
      "faith": 6169,
      "melo": 6170,
      "surfing": 6171,
      "rell": 6172,
      "sewing": 6173,
      "aimed": 6174,
      "nearly": 6175,
      "purr": 6176,
      "tran": 6177,
      "ais": 6178,
      "ilda": 6179,
      "brushing": 6180,
      "pays": 6181,
      "maisy": 6182,
      "hallo": 6183,
      "cheers": 6184,
      "licking": 6185,
      "fact": 6186,
      "evil": 6187,
      "instruments": 6188,
      "clues": 6189,
      "wider": 6190,
      "conflict": 6191,
      "ships": 6192,
      "halloween": 6193,
      "cept": 6194,
      "nuzz": 6195,
      "twisting": 6196,
      "appreciated": 6197,
      "scurry": 6198,
      "doorway": 6199,
      "paintbrush": 6200,
      "laying": 6201,
      "mermaid": 6202,
      "blocked": 6203,
      "rainy": 6204,
      "cottage": 6205,
      "breathing": 6206,
      "œplease": 6207,
      "soaking": 6208,
      "pippin": 6209,
      "asted": 6210,
      "heartbroken": 6211,
      "slither": 6212,
      "ignoring": 6213,
      "pippa": 6214,
      "gaz": 6215,
      "ading": 6216,
      "slipping": 6217,
      "several": 6218,
      "paths": 6219,
      "sweep": 6220,
      "repeating": 6221,
      "figures": 6222,
      "fif": 6223,
      "anger": 6224,
      "mailed": 6225,
      "defin": 6226,
      "results": 6227,
      "noodles": 6228,
      "connected": 6229,
      "crossing": 6230,
      "cloudy": 6231,
      "fantastic": 6232,
      "behavior": 6233,
      "grandson": 6234,
      "becky": 6235,
      "lending": 6236,
      "suffered": 6237,
      "idey": 6238,
      "damaged": 6239,
      "buses": 6240,
      "shrug": 6241,
      "finishing": 6242,
      "œof": 6243,
      "spidey": 6244,
      "dee": 6245,
      "€,": 6246,
      "ponies": 6247,
      "shovels": 6248,
      "tes": 6249,
      "roars": 6250,
      "bracele": 6251,
      "accomplished": 6252,
      "rather": 6253,
      "except": 6254,
      "humming": 6255,
      "bracelets": 6256,
      "responsib": 6257,
      "streamers": 6258,
      "toward": 6259,
      "surrendered": 6260,
      "risks": 6261,
      "insp": 6262,
      "eliza": 6263,
      "shady": 6264,
      "cleaner": 6265,
      "ives": 6266,
      "frankie": 6267,
      "via": 6268,
      "oni": 6269,
      "supported": 6270,
      "popp": 6271,
      "itely": 6272,
      "squaw": 6273,
      "byes": 6274,
      "kelly": 6275,
      "tasting": 6276,
      "rays": 6277,
      "snowflakes": 6278,
      "amber": 6279,
      "awoke": 6280,
      "quieter": 6281,
      "bec": 6282,
      "stitches": 6283,
      "goodbyes": 6284,
      "genie": 6285,
      "thorns": 6286,
      "definitely": 6287,
      "pant": 6288,
      "wally": 6289,
      "granddaughter": 6290,
      "janey": 6291,
      "edges": 6292,
      "tablet": 6293,
      "œnow": 6294,
      "kings": 6295,
      "becca": 6296,
      "prick": 6297,
      "stroll": 6298,
      "final": 6299,
      "frowns": 6300,
      "kevin": 6301,
      "deed": 6302,
      "handing": 6303,
      "ien": 6304,
      "gus": 6305,
      "smal": 6306,
      "sped": 6307,
      "wisely": 6308,
      "drown": 6309,
      "presented": 6310,
      "reminding": 6311,
      "symbols": 6312,
      "cie": 6313,
      "rotting": 6314,
      "terrified": 6315,
      "blad": 6316,
      "correctly": 6317,
      "hairdresser": 6318,
      "gesture": 6319,
      "smallest": 6320,
      "vines": 6321,
      "sou": 6322,
      "wobble": 6323,
      "driveway": 6324,
      "decisions": 6325,
      "peeled": 6326,
      "aware": 6327,
      "simply": 6328,
      "warri": 6329,
      "warrior": 6330,
      "scarecrow": 6331,
      "newfound": 6332,
      "squeaked": 6333,
      "occas": 6334,
      "chopped": 6335,
      "swimsuit": 6336,
      "weeds": 6337,
      "nasty": 6338,
      "recor": 6339,
      "inspired": 6340,
      "arranged": 6341,
      "ee": 6342,
      "fishes": 6343,
      "experien": 6344,
      "bandages": 6345,
      "daniel": 6346,
      "rick": 6347,
      "stopping": 6348,
      "exercises": 6349,
      "respon": 6350,
      "response": 6351,
      "jax": 6352,
      "date": 6353,
      "afar": 6354,
      "believing": 6355,
      "covering": 6356,
      "banged": 6357,
      "force": 6358,
      "tipped": 6359,
      "darlings": 6360,
      "œhey": 6361,
      "disturbing": 6362,
      "travels": 6363,
      "nat": 6364,
      "poppies": 6365,
      "lent": 6366,
      "fills": 6367,
      "footsteps": 6368,
      "phil": 6369,
      "pedaled": 6370,
      "flipped": 6371,
      "roger": 6372,
      "travelling": 6373,
      "convin": 6374,
      "stan": 6375,
      "punishment": 6376,
      "birdhouse": 6377,
      "dory": 6378,
      "spits": 6379,
      "windowsill": 6380,
      "rious": 6381,
      "erk": 6382,
      "leap": 6383,
      "forests": 6384,
      "patty": 6385,
      "desper": 6386,
      "planting": 6387,
      "cour": 6388,
      "grandfather": 6389,
      "testing": 6390,
      "pand": 6391,
      "nodding": 6392,
      "chocolates": 6393,
      "apologised": 6394,
      "iding": 6395,
      "encouragement": 6396,
      "surfboard": 6397,
      "congratulated": 6398,
      "sails": 6399,
      "reassured": 6400,
      "solving": 6401,
      "trotted": 6402,
      "reunited": 6403,
      "opp": 6404,
      "oink": 6405,
      "images": 6406,
      "pandas": 6407,
      "lina": 6408,
      "focus": 6409,
      "reapp": 6410,
      "magnif": 6411,
      "speeding": 6412,
      "campfire": 6413,
      "nancy": 6414,
      "issa": 6415,
      "marve": 6416,
      "officers": 6417,
      "reappear": 6418,
      "mood": 6419,
      "clerk": 6420,
      "sess": 6421,
      "amanda": 6422,
      "backpacks": 6423,
      "lever": 6424,
      "chilly": 6425,
      "foxes": 6426,
      "knots": 6427,
      "mam": 6428,
      "gears": 6429,
      "activity": 6430,
      "masterpiece": 6431,
      "dep": 6432,
      "expert": 6433,
      "beaver": 6434,
      "tuck": 6435,
      "yelped": 6436,
      "labels": 6437,
      "delayed": 6438,
      "wrinkled": 6439,
      "œthe": 6440,
      "bathing": 6441,
      "concert": 6442,
      "grip": 6443,
      "imagin": 6444,
      "comforting": 6445,
      "changes": 6446,
      "whoo": 6447,
      "sniffing": 6448,
      "lotte": 6449,
      "spills": 6450,
      "calmly": 6451,
      "worrying": 6452,
      "braver": 6453,
      "pleaded": 6454,
      "quackers": 6455,
      "burying": 6456,
      "discussing": 6457,
      "stumble": 6458,
      "spies": 6459,
      "aim": 6460,
      "magazines": 6461,
      "charlotte": 6462,
      "crowns": 6463,
      "suggestion": 6464,
      "seller": 6465,
      "carol": 6466,
      "flowing": 6467,
      "jars": 6468,
      "knit": 6469,
      "treated": 6470,
      "mischie": 6471,
      "displayed": 6472,
      "refuse": 6473,
      "ribbit": 6474,
      "belongings": 6475,
      "bothering": 6476,
      "mischievous": 6477,
      "understands": 6478,
      "ends": 6479,
      "fires": 6480,
      "admiration": 6481,
      "experienced": 6482,
      "height": 6483,
      "efforts": 6484,
      "baskets": 6485,
      "inter": 6486,
      "helen": 6487,
      "classm": 6488,
      "bis": 6489,
      "ey": 6490,
      "artwork": 6491,
      "fully": 6492,
      "dragonfly": 6493,
      "toolbox": 6494,
      "bitten": 6495,
      "posit": 6496,
      "dump": 6497,
      "coach": 6498,
      "loops": 6499,
      "gazing": 6500,
      "eddie": 6501,
      "rier": 6502,
      "vehicles": 6503,
      "kn": 6504,
      "annoyed": 6505,
      "elsa": 6506,
      "wealth": 6507,
      "packages": 6508,
      "cowboy": 6509,
      "sunscreen": 6510,
      "tess": 6511,
      "peas": 6512,
      "sheets": 6513,
      "satur": 6514,
      "temp": 6515,
      "sasha": 6516,
      "tumbled": 6517,
      "curl": 6518,
      "sets": 6519,
      "seashells": 6520,
      "melody": 6521,
      "inted": 6522,
      "warmly": 6523,
      "puck": 6524,
      "nibbled": 6525,
      "rudy": 6526,
      "diamonds": 6527,
      "lan": 6528,
      "spooky": 6529,
      "scent": 6530,
      "business": 6531,
      "members": 6532,
      "œsure": 6533,
      "creams": 6534,
      "scram": 6535,
      "insisting": 6536,
      "countered": 6537,
      "prayers": 6538,
      "tammy": 6539,
      "conqu": 6540,
      "untied": 6541,
      "parted": 6542,
      "races": 6543,
      "environ": 6544,
      "icky": 6545,
      "conversation": 6546,
      "collap": 6547,
      "charge": 6548,
      "turtles": 6549,
      "hoops": 6550,
      "encountered": 6551,
      "ava": 6552,
      "purpose": 6553,
      "teachers": 6554,
      "sewed": 6555,
      "joins": 6556,
      "locks": 6557,
      "environment": 6558,
      "whispering": 6559,
      "scurrying": 6560,
      "orders": 6561,
      "nana": 6562,
      "vented": 6563,
      "spells": 6564,
      "permitted": 6565,
      "joked": 6566,
      "argum": 6567,
      "tilted": 6568,
      "otherwise": 6569,
      "troubles": 6570,
      "forgiveness": 6571,
      "terry": 6572,
      "loses": 6573,
      "goats": 6574,
      "scientist": 6575,
      "lil": 6576,
      "tment": 6577,
      "jason": 6578,
      "spy": 6579,
      "fins": 6580,
      "queens": 6581,
      "drift": 6582,
      "glittering": 6583,
      "œsee": 6584,
      "ugging": 6585,
      "burger": 6586,
      "ening": 6587,
      "tubes": 6588,
      "honesty": 6589,
      "acles": 6590,
      "type": 6591,
      "saturday": 6592,
      "pupils": 6593,
      "willi": 6594,
      "grad": 6595,
      "whim": 6596,
      "beaming": 6597,
      "anticip": 6598,
      "biscu": 6599,
      "dressing": 6600,
      "nearest": 6601,
      "films": 6602,
      "tapping": 6603,
      "fishy": 6604,
      "visitors": 6605,
      "william": 6606,
      "stam": 6607,
      "plugged": 6608,
      "customers": 6609,
      "gap": 6610,
      "declar": 6611,
      "opport": 6612,
      "donkey": 6613,
      "wasting": 6614,
      "untie": 6615,
      "cleared": 6616,
      "hunters": 6617,
      "mosquitoes": 6618,
      "convinced": 6619,
      "oppo": 6620,
      "ricky": 6621,
      "nurses": 6622,
      "hover": 6623,
      "examining": 6624,
      "bobbie": 6625,
      "knives": 6626,
      "rely": 6627,
      "rowed": 6628,
      "sweaty": 6629,
      "swollen": 6630,
      "wounds": 6631,
      "ilder": 6632,
      "eric": 6633,
      "ppa": 6634,
      "elsie": 6635,
      "builder": 6636,
      "slowed": 6637,
      "declared": 6638,
      "buckled": 6639,
      "opposite": 6640,
      "finny": 6641,
      "jud": 6642,
      "characters": 6643,
      "guessing": 6644,
      "ilities": 6645,
      "failed": 6646,
      "trans": 6647,
      "active": 6648,
      "tidied": 6649,
      "whoosh": 6650,
      "seagulls": 6651,
      "thanking": 6652,
      "tips": 6653,
      "sternly": 6654,
      "scratching": 6655,
      "goodies": 6656,
      "youngest": 6657,
      "caw": 6658,
      "scrambled": 6659,
      "signing": 6660,
      "earned": 6661,
      "rescuing": 6662,
      "grat": 6663,
      "beeped": 6664,
      "bongo": 6665,
      "nibble": 6666,
      "fain": 6667,
      "meowing": 6668,
      "tessa": 6669,
      "novels": 6670,
      "questioned": 6671,
      "dripping": 6672,
      "bou": 6673,
      "ruf": 6674,
      "mony": 6675,
      "peppa": 6676,
      "plug": 6677,
      "picnics": 6678,
      "knocking": 6679,
      "matey": 6680,
      "tires": 6681,
      "seals": 6682,
      "anticipation": 6683,
      "hike": 6684,
      "responded": 6685,
      "aisle": 6686,
      "responsibility": 6687,
      "gratitude": 6688,
      "floors": 6689,
      "smashed": 6690,
      "zoomy": 6691,
      "lipstick": 6692,
      "attacked": 6693,
      "explains": 6694,
      "emerged": 6695,
      "œwho": 6696,
      "tho": 6697,
      "stall": 6698,
      "ria": 6699,
      "discoveries": 6700,
      "aeroplanes": 6701,
      "decoration": 6702,
      "badger": 6703,
      "zooms": 6704,
      "flip": 6705,
      "manners": 6706,
      "classmates": 6707,
      "vive": 6708,
      "tops": 6709,
      "rats": 6710,
      "visits": 6711,
      "girla": 6712,
      "pene": 6713,
      "twists": 6714,
      "survive": 6715,
      "gary": 6716,
      "rebecca": 6717,
      "crabby": 6718,
      "brian": 6719,
      "manager": 6720,
      "arrr": 6721,
      "cara": 6722,
      "increasing": 6723,
      "penelope": 6724,
      "munk": 6725,
      "poses": 6726,
      "chipmunk": 6727,
      "matilda": 6728,
      "inchworm": 6729,
      "jugg": 6730,
      "breaths": 6731,
      "rumbling": 6732,
      "shrunk": 6733,
      "soo": 6734,
      "beehive": 6735,
      "olivia": 6736,
      "bond": 6737,
      "sill": 6738,
      "brightest": 6739,
      "complim": 6740,
      "elbow": 6741,
      "winding": 6742,
      "munched": 6743,
      "purrs": 6744,
      "flaps": 6745,
      "aliens": 6746,
      "shimmering": 6747,
      "ramp": 6748,
      "œgood": 6749,
      "swaying": 6750,
      "groan": 6751,
      "ssss": 6752,
      "flips": 6753,
      "lowered": 6754,
      "cracks": 6755,
      "movements": 6756,
      "ooh": 6757,
      "achoo": 6758,
      "ghosts": 6759,
      "honking": 6760,
      "argument": 6761,
      "doorbell": 6762,
      "designing": 6763,
      "address": 6764,
      "lor": 6765,
      "ruff": 6766,
      "prevented": 6767,
      "announced": 6768,
      "prickly": 6769,
      "offering": 6770,
      "switched": 6771,
      "shelly": 6772,
      "taped": 6773,
      "tempt": 6774,
      "jilly": 6775,
      "lyn": 6776,
      "gasp": 6777,
      "germs": 6778,
      "heaven": 6779,
      "nuzzled": 6780,
      "destroying": 6781,
      "shines": 6782,
      "ashley": 6783,
      "jobs": 6784,
      "million": 6785,
      "swayed": 6786,
      "aret": 6787,
      "stetho": 6788,
      "gues": 6789,
      "ration": 6790,
      "swap": 6791,
      "minds": 6792,
      "quet": 6793,
      "cares": 6794,
      "genero": 6795,
      "observing": 6796,
      "dodged": 6797,
      "closing": 6798,
      "generosity": 6799,
      "crawls": 6800,
      "glimmering": 6801,
      "whistles": 6802,
      "greet": 6803,
      "recorder": 6804,
      "scooters": 6805,
      "gracie": 6806,
      "smelt": 6807,
      "crops": 6808,
      "snaps": 6809,
      "angle": 6810,
      "court": 6811,
      "beautifully": 6812,
      "dangers": 6813,
      "unpacking": 6814,
      "beating": 6815,
      "tidying": 6816,
      "exploded": 6817,
      "cupcake": 6818,
      "scolds": 6819,
      "checkout": 6820,
      "languages": 6821,
      "stamped": 6822,
      "tests": 6823,
      "abra": 6824,
      "experim": 6825,
      "customer": 6826,
      "haven": 6827,
      "shor": 6828,
      "elect": 6829,
      "aa": 6830,
      "cafe": 6831,
      "paddling": 6832,
      "robbers": 6833,
      "thankfully": 6834,
      "tummies": 6835,
      "stethoscope": 6836,
      "burgers": 6837,
      "drowned": 6838,
      "clicked": 6839,
      "ability": 6840,
      "expecting": 6841,
      "goo": 6842,
      "dryer": 6843,
      "laptop": 6844,
      "routine": 6845,
      "intent": 6846,
      "condu": 6847,
      "scen": 6848,
      "astronauts": 6849,
      "œmaybe": 6850,
      "supplied": 6851,
      "nora": 6852,
      "vegg": 6853,
      "peggy": 6854,
      "veggies": 6855,
      "gabby": 6856,
      "bonnie": 6857,
      "flick": 6858,
      "idence": 6859,
      "statues": 6860,
      "steering": 6861,
      "dears": 6862,
      "scul": 6863,
      "pos": 6864,
      "serv": 6865,
      "paula": 6866,
      "bouquet": 6867,
      "twent": 6868,
      "adds": 6869,
      "twenty": 6870,
      "vince": 6871,
      "cocoon": 6872,
      "particularly": 6873,
      "chatted": 6874,
      "cock": 6875,
      "dollar": 6876,
      "conductor": 6877,
      "shorts": 6878,
      "pout": 6879,
      "reminds": 6880,
      "cope": 6881,
      "appla": 6882,
      "tyler": 6883,
      "dock": 6884,
      "rudolph": 6885,
      "cutter": 6886,
      "hardest": 6887,
      "bunbun": 6888,
      "snor": 6889,
      "applause": 6890,
      "zack": 6891,
      "stretches": 6892,
      "healthier": 6893,
      "moma": 6894,
      "cooper": 6895,
      "consid": 6896,
      "floats": 6897,
      "snug": 6898,
      "wiser": 6899,
      "feli": 6900,
      "sprinkle": 6901,
      "provid": 6902,
      "riley": 6903,
      "carla": 6904,
      "awful": 6905,
      "roo": 6906,
      "brad": 6907,
      "minded": 6908,
      "wildflowers": 6909,
      "andrew": 6910,
      "wooly": 6911,
      "overhead": 6912,
      "mered": 6913,
      "vour": 6914,
      "ginger": 6915,
      "april": 6916,
      "weapons": 6917,
      "bluebird": 6918,
      "foxy": 6919,
      "ural": 6920,
      "hiss": 6921,
      "traded": 6922,
      "nests": 6923,
      "midnight": 6924,
      "opinions": 6925,
      "returning": 6926,
      "squished": 6927,
      "umbrell": 6928,
      "distrac": 6929,
      "burnt": 6930,
      "combed": 6931,
      "sprays": 6932,
      "fascinating": 6933,
      "umbrellas": 6934,
      "carries": 6935,
      "syrup": 6936,
      "scribb": 6937,
      "bothered": 6938,
      "admit": 6939,
      "rosa": 6940,
      "flora": 6941,
      "experiences": 6942,
      "faint": 6943,
      "trusting": 6944,
      "pleas": 6945,
      "container": 6946,
      "deserved": 6947,
      "target": 6948,
      "providing": 6949,
      "killed": 6950,
      "teles": 6951,
      "defeated": 6952,
      "flashing": 6953,
      "beast": 6954,
      "born": 6955,
      "example": 6956,
      "shorter": 6957,
      "farmers": 6958,
      "tearing": 6959,
      "raising": 6960,
      "sculpture": 6961,
      "liam": 6962,
      "flashed": 6963,
      "checks": 6964,
      "inches": 6965,
      "lopes": 6966,
      "bounces": 6967,
      "burns": 6968,
      "annabelle": 6969,
      "nights": 6970,
      "melissa": 6971,
      "apers": 6972,
      "hotter": 6973,
      "applauding": 6974,
      "rows": 6975,
      "confidence": 6976,
      "rench": 6977,
      "grumbled": 6978,
      "compan": 6979,
      "glided": 6980,
      "mila": 6981,
      "storms": 6982,
      "whales": 6983,
      "concent": 6984,
      "grily": 6985,
      "crystals": 6986,
      "mamma": 6987,
      "cubs": 6988,
      "telescope": 6989,
      "member": 6990,
      "bats": 6991,
      "sadder": 6992,
      "tions": 6993,
      "rufus": 6994,
      "gardens": 6995,
      "convince": 6996,
      "blur": 6997,
      "craf": 6998,
      "asers": 6999,
      "vio": 7000,
      "vast": 7001,
      "cheated": 7002,
      "petting": 7003,
      "omb": 7004,
      "checking": 7005,
      "awhile": 7006,
      "bam": 7007,
      "necks": 7008,
      "clip": 7009,
      "otters": 7010,
      "teams": 7011,
      "soapy": 7012,
      "barry": 7013,
      "zee": 7014,
      "€¦": 7015,
      "possess": 7016,
      "blown": 7017,
      "munching": 7018,
      "extraordinary": 7019,
      "traveling": 7020,
      "collapsed": 7021,
      "relaxing": 7022,
      "insepar": 7023,
      "sirens": 7024,
      "inseparable": 7025,
      "slee": 7026,
      "miracle": 7027,
      "forgives": 7028,
      "prizes": 7029,
      "types": 7030,
      "gul": 7031,
      "torto": 7032,
      "hunting": 7033,
      "lenny": 7034,
      "behaviour": 7035,
      "shat": 7036,
      "scrub": 7037,
      "pinching": 7038,
      "imaginary": 7039,
      "waters": 7040,
      "chin": 7041,
      "rent": 7042,
      "instrument": 7043,
      "mona": 7044,
      "meows": 7045,
      "bicycles": 7046,
      "unable": 7047,
      "singers": 7048,
      "sprout": 7049,
      "tortoise": 7050,
      "pills": 7051,
      "tempted": 7052,
      "waded": 7053,
      "willy": 7054,
      "dial": 7055,
      "sprang": 7056,
      "ades": 7057,
      "upside": 7058,
      "ative": 7059,
      "mommies": 7060,
      "exploration": 7061,
      "salon": 7062,
      "peeped": 7063,
      "adabra": 7064,
      "jose": 7065,
      "opportunity": 7066,
      "longest": 7067,
      "attitude": 7068,
      "expression": 7069,
      "conquered": 7070,
      "sometime": 7071,
      "distracted": 7072,
      "œbe": 7073,
      "gradually": 7074,
      "realizes": 7075,
      "bomb": 7076,
      "cheaper": 7077,
      "acts": 7078,
      "discouraged": 7079,
      "sweaters": 7080,
      "bride": 7081,
      "crocodiles": 7082,
      "coolest": 7083,
      "enemies": 7084,
      "jody": 7085,
      "wriggled": 7086,
      "clearly": 7087,
      "engines": 7088,
      "necess": 7089,
      "odd": 7090,
      "yawning": 7091,
      "trig": 7092,
      "envelopes": 7093,
      "ware": 7094,
      "getic": 7095,
      "beetles": 7096,
      "flock": 7097,
      "oliver": 7098,
      "passes": 7099,
      "moat": 7100,
      "ounce": 7101,
      "grasshopper": 7102,
      "swimmer": 7103,
      "countries": 7104,
      "cheat": 7105,
      "compete": 7106,
      "surely": 7107,
      "marking": 7108,
      "overwhe": 7109,
      "overwhel": 7110,
      "jennie": 7111,
      "reappeared": 7112,
      "chatting": 7113,
      "gallo": 7114,
      "quacking": 7115,
      "miller": 7116,
      "glittered": 7117,
      "martin": 7118,
      "maje": 7119,
      "trigger": 7120,
      "weighing": 7121,
      "haircuts": 7122,
      "common": 7123,
      "spilling": 7124,
      "annoying": 7125,
      "mattered": 7126,
      "servant": 7127,
      "details": 7128,
      "strips": 7129,
      "enjoyable": 7130,
      "mac": 7131,
      "crowded": 7132,
      "cheerfully": 7133,
      "als": 7134,
      "local": 7135,
      "noticing": 7136,
      "approach": 7137,
      "whined": 7138,
      "hangers": 7139,
      "janet": 7140,
      "uniforms": 7141,
      "treas": 7142,
      "thicker": 7143,
      "natural": 7144,
      "joanna": 7145,
      "soundly": 7146,
      "smoking": 7147,
      "bubbly": 7148,
      "brant": 7149,
      "companion": 7150,
      "repairman": 7151,
      "fond": 7152,
      "ishes": 7153,
      "abrac": 7154,
      "skies": 7155,
      "abracadabra": 7156,
      "stur": 7157,
      "vibrant": 7158,
      "shallow": 7159,
      "airplanes": 7160,
      "plo": 7161,
      "uff": 7162,
      "violet": 7163,
      "outfits": 7164,
      "becomes": 7165,
      "washes": 7166,
      "bud": 7167,
      "stripe": 7168,
      "freezing": 7169,
      "treasured": 7170,
      "aboard": 7171,
      "newspapers": 7172,
      "blank": 7173,
      "joyfully": 7174,
      "iff": 7175,
      "moonlight": 7176,
      "izz": 7177,
      "ketch": 7178,
      "cris": 7179,
      "camel": 7180,
      "occasion": 7181,
      "leah": 7182,
      "pepperoni": 7183,
      "necessary": 7184,
      "backs": 7185,
      "teen": 7186,
      "swirls": 7187,
      "jasmine": 7188,
      "wanna": 7189,
      "rie": 7190,
      "scrun": 7191,
      "œyay": 7192,
      "timid": 7193,
      "crou": 7194,
      "bulbs": 7195,
      "clue": 7196,
      "cheating": 7197,
      "cowboys": 7198,
      "sincere": 7199,
      "coug": 7200,
      "ering": 7201,
      "clut": 7202,
      "blon": 7203,
      "hummed": 7204,
      "sneezes": 7205,
      "scattering": 7206,
      "mugs": 7207,
      "bound": 7208,
      "cherish": 7209,
      "blonde": 7210,
      "erase": 7211,
      "messes": 7212,
      "biscuit": 7213,
      "cathy": 7214,
      "grump": 7215,
      "faction": 7216,
      "johny": 7217,
      "produ": 7218,
      "satisfaction": 7219,
      "avery": 7220,
      "lump": 7221,
      "models": 7222,
      "successfully": 7223,
      "cells": 7224,
      "calmer": 7225,
      "brake": 7226,
      "squinted": 7227,
      "communic": 7228,
      "caterpillars": 7229,
      "blushed": 7230,
      "sipped": 7231,
      "venir": 7232,
      "souvenir": 7233,
      "slapping": 7234,
      "situations": 7235,
      "leaking": 7236,
      "positive": 7237,
      "coughed": 7238,
      "',": 7239,
      "meatballs": 7240,
      "explaining": 7241,
      "glittery": 7242,
      "eve": 7243,
      "lers": 7244,
      "bruises": 7245,
      "answering": 7246,
      "smartest": 7247,
      "fris": 7248,
      "acing": 7249,
      "weighs": 7250,
      "tickling": 7251,
      "certainly": 7252,
      "scenery": 7253,
      "pressing": 7254,
      "pilots": 7255,
      "chill": 7256,
      "storing": 7257,
      "traps": 7258,
      "rewards": 7259,
      "rin": 7260,
      "goodness": 7261,
      "melons": 7262,
      "unfair": 7263,
      "joan": 7264,
      "welcoming": 7265,
      "scares": 7266,
      "phe": 7267,
      "possib": 7268,
      "cages": 7269,
      "nate": 7270,
      "talents": 7271,
      "hundreds": 7272,
      "rubbish": 7273,
      "rewarding": 7274,
      "hootie": 7275,
      "bamboo": 7276,
      "shattered": 7277,
      "rowing": 7278,
      "claw": 7279,
      "ketchup": 7280,
      "compar": 7281,
      "hisses": 7282,
      "cleans": 7283,
      "''": 7284,
      "foreshadow": 7285,
      "risk": 7286,
      "fireflies": 7287,
      "stuffing": 7288,
      "pantry": 7289,
      "cluck": 7290,
      "tale": 7291,
      "dition": 7292,
      "scow": 7293,
      "chickie": 7294,
      "ami": 7295,
      "practised": 7296,
      "steven": 7297,
      "binoc": 7298,
      "ada": 7299,
      "teapot": 7300,
      "digs": 7301,
      "secur": 7302,
      "intently": 7303,
      "guards": 7304,
      "sturdy": 7305,
      "horri": 7306,
      "pipes": 7307,
      "angrily": 7308,
      "baller": 7309,
      "endant": 7310,
      "bruce": 7311,
      "groaned": 7312,
      "int": 7313,
      "apology": 7314,
      "aho": 7315,
      "mumma": 7316,
      "œwea": 7317,
      "marveled": 7318,
      "ahoy": 7319,
      "runner": 7320,
      "bends": 7321,
      "nightmares": 7322,
      "unfamiliar": 7323,
      "finishes": 7324,
      "sandpit": 7325,
      "tunes": 7326,
      "meadows": 7327,
      "bubbling": 7328,
      "hopscot": 7329,
      "aly": 7330,
      "rowave": 7331,
      "doorstep": 7332,
      "microwave": 7333,
      "croaked": 7334,
      "jets": 7335,
      "shyly": 7336,
      "aston": 7337,
      "witches": 7338,
      "invites": 7339,
      "alley": 7340,
      "stun": 7341,
      "section": 7342,
      "tentacles": 7343,
      "spoiling": 7344,
      "energetic": 7345,
      "felix": 7346,
      "lookout": 7347,
      "sweeter": 7348,
      "fifi": 7349,
      "!'.": 7350,
      "tugging": 7351,
      "exchange": 7352,
      "stepping": 7353,
      "overwhelmed": 7354,
      "chews": 7355,
      "styles": 7356,
      "phew": 7357,
      "hopscotch": 7358,
      "protection": 7359,
      "aming": 7360,
      "teamwork": 7361,
      "ying": 7362,
      "chopping": 7363,
      "messages": 7364,
      "isna": 7365,
      "defeat": 7366,
      "strolled": 7367,
      "moons": 7368,
      "phones": 7369,
      "jing": 7370,
      "shrank": 7371,
      "rrrr": 7372,
      "popsic": 7373,
      "randy": 7374,
      "playhouse": 7375,
      "napped": 7376,
      "mayor": 7377,
      "loyalty": 7378,
      "hesitation": 7379,
      "dou": 7380,
      "underwater": 7381,
      "hamm": 7382,
      "ulars": 7383,
      "gasps": 7384,
      "obst": 7385,
      "inju": 7386,
      "inspec": 7387,
      "fade": 7388,
      "josie": 7389,
      "gemma": 7390,
      "guardian": 7391,
      "oscar": 7392,
      "juic": 7393,
      "demanding": 7394,
      "pleasant": 7395,
      "cled": 7396,
      "binoculars": 7397,
      "ballerina": 7398,
      "pouch": 7399,
      "rips": 7400,
      "jacka": 7401,
      "stew": 7402,
      "ared": 7403,
      "crouched": 7404,
      "raking": 7405,
      "shares": 7406,
      "ari": 7407,
      "buggy": 7408,
      "slithered": 7409,
      "disappointment": 7410,
      "electri": 7411,
      "realizing": 7412,
      "differently": 7413,
      "tickles": 7414,
      "concentr": 7415,
      "minnie": 7416,
      "crickets": 7417,
      "snar": 7418,
      "patrick": 7419,
      "pounced": 7420,
      "meaning": 7421,
      "stores": 7422,
      "transformed": 7423,
      "œhow": 7424,
      "recess": 7425,
      "thie": 7426,
      "landing": 7427,
      "allie": 7428,
      "peacock": 7429,
      "unwrapped": 7430,
      "condition": 7431,
      "riverbank": 7432,
      "amused": 7433,
      "ravi": 7434,
      "spi": 7435,
      "sandra": 7436,
      "sweetly": 7437,
      "squeezes": 7438,
      "cracker": 7439,
      "fries": 7440,
      "inj": 7441,
      "rosy": 7442,
      "playdate": 7443,
      "hmm": 7444,
      "erup": 7445,
      "spic": 7446,
      "ankle": 7447,
      "pokes": 7448,
      "bil": 7449,
      "actor": 7450,
      "cherished": 7451,
      "vac": 7452,
      "choosing": 7453,
      "whimpered": 7454,
      "kel": 7455,
      "creak": 7456,
      "judges": 7457,
      "snorted": 7458,
      "oma": 7459,
      "ips": 7460,
      "thrill": 7461,
      "kinder": 7462,
      "electricity": 7463,
      "invent": 7464,
      "claus": 7465,
      "thieves": 7466,
      "formation": 7467,
      "marley": 7468,
      "mysteries": 7469,
      "blades": 7470,
      "snapping": 7471,
      "keepers": 7472,
      "suppor": 7473,
      "mie": 7474,
      "œdon": 7475,
      "whir": 7476,
      "watermelon": 7477,
      "centre": 7478,
      "elace": 7479,
      "shoelace": 7480,
      "wilbur": 7481,
      "rita": 7482,
      "sacks": 7483,
      "sey": 7484,
      "aller": 7485,
      "injured": 7486,
      "gates": 7487,
      "craft": 7488,
      "groups": 7489,
      "ambi": 7490,
      "munch": 7491,
      "thest": 7492,
      "trusty": 7493,
      "lumberjack": 7494,
      "kneeling": 7495,
      "leans": 7496,
      "heels": 7497,
      "bold": 7498,
      "temptation": 7499,
      "halfway": 7500,
      "intelligence": 7501,
      "ahh": 7502,
      "seasons": 7503,
      "enemy": 7504,
      "tant": 7505,
      "ands": 7506,
      "trading": 7507,
      "pinchy": 7508,
      "stanley": 7509,
      "boil": 7510,
      "tained": 7511,
      "umbling": 7512,
      "frustration": 7513,
      "structures": 7514,
      "consider": 7515,
      "keyhole": 7516,
      "computers": 7517,
      "level": 7518,
      "spare": 7519,
      "skirts": 7520,
      "reversing": 7521,
      "alan": 7522,
      "spears": 7523,
      "solute": 7524,
      "scene": 7525,
      "wiggles": 7526,
      "fluff": 7527,
      "lizards": 7528,
      "supporting": 7529,
      "oos": 7530,
      "unless": 7531,
      "kenny": 7532,
      "bambi": 7533,
      "lush": 7534,
      "kangaroos": 7535,
      "banging": 7536,
      "astonished": 7537,
      "absolute": 7538,
      "swimsuits": 7539,
      "sleeps": 7540,
      "charm": 7541,
      "foggy": 7542,
      "benches": 7543,
      "magically": 7544,
      "sno": 7545,
      "warmed": 7546,
      "weaker": 7547,
      "jona": 7548,
      "jodie": 7549,
      "tantrum": 7550,
      "textures": 7551,
      "communicate": 7552,
      "wen": 7553,
      "wiggling": 7554,
      "levers": 7555,
      "jonathan": 7556,
      "hissing": 7557,
      "alongside": 7558,
      "hank": 7559,
      "enger": 7560,
      "nicest": 7561,
      "speople": 7562,
      "ziggy": 7563,
      "townspeople": 7564,
      "motorcycles": 7565,
      "writer": 7566,
      "anie": 7567,
      "reled": 7568,
      "shinier": 7569,
      "luckiest": 7570,
      "thumbs": 7571,
      "othy": 7572,
      "wolves": 7573,
      "bloss": 7574,
      "roller": 7575,
      "prank": 7576,
      "cops": 7577,
      "visible": 7578,
      "pedaling": 7579,
      ",'": 7580,
      "rung": 7581,
      "gwen": 7582,
      "trusts": 7583,
      "quarreled": 7584,
      "softened": 7585,
      "hudd": 7586,
      "knobs": 7587,
      "jeremy": 7588,
      "owls": 7589,
      "magnifying": 7590,
      "colin": 7591,
      "disappearing": 7592,
      "mooed": 7593,
      "whine": 7594,
      "toothbrush": 7595,
      "poisonous": 7596,
      "kyle": 7597,
      "limp": 7598,
      "boiling": 7599,
      "\"!": 7600,
      "bowing": 7601,
      "gle": 7602,
      "groom": 7603,
      "worst": 7604,
      "cases": 7605,
      "continuing": 7606,
      "guarding": 7607,
      "alled": 7608,
      "zips": 7609,
      "habit": 7610,
      "concerned": 7611,
      "fetched": 7612,
      "udged": 7613,
      "gic": 7614,
      "compared": 7615,
      "buster": 7616,
      "surprisingly": 7617,
      "funn": 7618,
      "revealing": 7619,
      "pest": 7620,
      "doesna": 7621,
      "bushy": 7622,
      "improving": 7623,
      "property": 7624,
      "absolutely": 7625,
      "thew": 7626,
      "laby": 7627,
      "peak": 7628,
      "speaker": 7629,
      "attemp": 7630,
      "oldest": 7631,
      "croak": 7632,
      "lullaby": 7633,
      "tock": 7634,
      "lucas": 7635,
      "popping": 7636,
      "œthanks": 7637,
      "mais": 7638,
      "glan": 7639,
      "cuddling": 7640,
      "sensation": 7641,
      "ko": 7642,
      "tink": 7643,
      "œwelcome": 7644,
      "nibbles": 7645,
      "libby": 7646,
      "canv": 7647,
      "cupboards": 7648,
      "character": 7649,
      "dia": 7650,
      "wheelbar": 7651,
      "embarrassing": 7652,
      "puppets": 7653,
      "facing": 7654,
      "harmony": 7655,
      "brains": 7656,
      "desperate": 7657,
      "rebuild": 7658,
      "owns": 7659,
      "blade": 7660,
      "maisie": 7661,
      "wrench": 7662,
      "journeys": 7663,
      "drying": 7664,
      "allowing": 7665,
      "soothing": 7666,
      "whirl": 7667,
      "disaster": 7668,
      "cooled": 7669,
      "facts": 7670,
      "aloud": 7671,
      "repairing": 7672,
      "ites": 7673,
      "lava": 7674,
      "shoots": 7675,
      "appearance": 7676,
      "thumper": 7677,
      "till": 7678,
      "realise": 7679,
      "narrow": 7680,
      "foam": 7681,
      "gress": 7682,
      "thunderstorm": 7683,
      "sneaks": 7684,
      "ostri": 7685,
      "courageous": 7686,
      "invitations": 7687,
      "coughing": 7688,
      "security": 7689,
      "mindful": 7690,
      "ibly": 7691,
      "alligators": 7692,
      "spiky": 7693,
      "canvas": 7694,
      "whoa": 7695,
      "sooner": 7696,
      "heavily": 7697,
      "blooms": 7698,
      "deeply": 7699,
      "larger": 7700,
      "sobbing": 7701,
      "toto": 7702,
      "quilt": 7703,
      "skate": 7704,
      "circled": 7705,
      "dashed": 7706,
      "jes": 7707,
      "mest": 7708,
      "jennif": 7709,
      "sleds": 7710,
      "nearer": 7711,
      "ena": 7712,
      "angrier": 7713,
      "mustered": 7714,
      "jennifer": 7715,
      "ress": 7716,
      "current": 7717,
      "chewy": 7718,
      "medals": 7719,
      "costs": 7720,
      "honks": 7721,
      "completing": 7722,
      "mold": 7723,
      "stinky": 7724,
      "pickles": 7725,
      "cousins": 7726,
      "hollow": 7727,
      "foo": 7728,
      "shrugs": 7729,
      "wheelbarrow": 7730,
      "ths": 7731,
      "scoops": 7732,
      "œthere": 7733,
      "compe": 7734,
      "conten": 7735,
      "bruno": 7736,
      "cru": 7737,
      "repeats": 7738,
      "ostriches": 7739,
      "hips": 7740,
      "waking": 7741,
      "loudest": 7742,
      "throne": 7743,
      "contented": 7744,
      "flashes": 7745,
      "whipped": 7746,
      "hangs": 7747,
      "kayaking": 7748,
      "warmest": 7749,
      "winds": 7750,
      "springing": 7751,
      "mana": 7752,
      "copied": 7753,
      "rails": 7754,
      "attempts": 7755,
      "minding": 7756,
      "incredibly": 7757,
      "cooperate": 7758,
      "plopped": 7759,
      "lunchtime": 7760,
      "disobey": 7761,
      "matthew": 7762,
      "fights": 7763,
      "swat": 7764,
      "preschool": 7765,
      "lantern": 7766,
      "ratty": 7767,
      "gratefully": 7768,
      "footprints": 7769,
      "achievement": 7770,
      "dozed": 7771,
      "sitter": 7772,
      "scratchy": 7773,
      "savor": 7774,
      "calming": 7775,
      "flooded": 7776,
      "aye": 7777,
      "ripp": 7778,
      "wance": 7779,
      "caution": 7780,
      "allowance": 7781,
      "caps": 7782,
      "atest": 7783,
      "johna": 7784,
      "glared": 7785,
      "tippy": 7786,
      "hooves": 7787,
      "huddled": 7788,
      "theat": 7789,
      "soda": 7790,
      "ector": 7791,
      "cig": 7792,
      "pled": 7793,
      "juiciest": 7794,
      "misty": 7795,
      "shave": 7796,
      "œwould": 7797,
      "springtime": 7798,
      "persistence": 7799,
      "ticking": 7800,
      "woodcutter": 7801,
      "strokes": 7802,
      "disagreement": 7803,
      "loads": 7804,
      "chatter": 7805,
      "aroma": 7806,
      "movement": 7807,
      "squawk": 7808,
      "chall": 7809,
      "desperately": 7810,
      "liness": 7811,
      "hatched": 7812,
      "swapped": 7813,
      "cigaret": 7814,
      "glistening": 7815,
      "racer": 7816,
      "missy": 7817,
      "bellies": 7818,
      "seriously": 7819,
      "comets": 7820,
      "booth": 7821,
      "clover": 7822,
      "freya": 7823,
      "hooks": 7824,
      "experiment": 7825,
      "lifeguard": 7826,
      "seatbelt": 7827,
      "enges": 7828,
      "speaks": 7829,
      "challenges": 7830,
      "kissing": 7831,
      "interrup": 7832,
      "willow": 7833,
      "whether": 7834,
      "coop": 7835,
      "quacks": 7836,
      "theatre": 7837,
      "possibilities": 7838,
      "science": 7839,
      "oceans": 7840,
      "vinegar": 7841,
      "gogg": 7842,
      "usion": 7843,
      "clare": 7844,
      "chanted": 7845,
      "bathed": 7846,
      "bumping": 7847,
      "glanced": 7848,
      "capture": 7849,
      "daily": 7850,
      "squeal": 7851,
      "bolt": 7852,
      "sniffled": 7853,
      "magnific": 7854,
      "royal": 7855,
      "doggie": 7856,
      "harvest": 7857,
      "musicians": 7858,
      "lasted": 7859,
      "chili": 7860,
      "theya": 7861,
      "poop": 7862,
      "smoothly": 7863,
      "hippos": 7864,
      "stomp": 7865,
      "œare": 7866,
      "def": 7867,
      "wax": 7868,
      "introducing": 7869,
      "champ": 7870,
      "rinse": 7871,
      "scut": 7872,
      "pollen": 7873,
      "blamed": 7874,
      "fuss": 7875,
      "energ": 7876,
      "nicky": 7877,
      "deciding": 7878,
      "congratulations": 7879,
      "goggles": 7880,
      "gummy": 7881,
      "plus": 7882,
      "charged": 7883,
      "stirs": 7884,
      "ppings": 7885,
      "imaginations": 7886,
      "exhi": 7887,
      "stacking": 7888,
      "mur": 7889,
      "folds": 7890,
      "paste": 7891,
      "pounds": 7892,
      "desks": 7893,
      "yumm": 7894,
      "mesmerised": 7895,
      "uncovered": 7896,
      "parks": 7897,
      "det": 7898,
      "stains": 7899,
      "amongst": 7900,
      "passenger": 7901,
      "stic": 7902,
      "gogo": 7903,
      "olly": 7904,
      "babysitter": 7905,
      "wrapper": 7906,
      "progress": 7907,
      "obediently": 7908,
      "dedic": 7909,
      "carly": 7910,
      "cloths": 7911,
      "roamed": 7912,
      "maps": 7913,
      "piled": 7914,
      "hoor": 7915,
      "span": 7916,
      "messed": 7917,
      "cutest": 7918,
      "joseph": 7919,
      "retri": 7920,
      "process": 7921,
      "recommendation": 7922,
      "hooray": 7923,
      "hatch": 7924,
      "pizz": 7925,
      "cooed": 7926,
      "ulous": 7927,
      "cuc": 7928,
      "sean": 7929,
      "disobeyed": 7930,
      "files": 7931,
      "fooled": 7932,
      "magnificent": 7933,
      "isted": 7934,
      "undone": 7935,
      "cocon": 7936,
      "pecks": 7937,
      "anten": 7938,
      "coconut": 7939,
      "hoses": 7940,
      "borrowing": 7941,
      "hamster": 7942,
      "hovering": 7943,
      "allergic": 7944,
      "noah": 7945,
      "braid": 7946,
      "flavour": 7947,
      "yummiest": 7948,
      "doves": 7949,
      "juli": 7950,
      "confusion": 7951,
      "shooed": 7952,
      "clubs": 7953,
      "desserts": 7954,
      "handy": 7955,
      "purring": 7956,
      "aprons": 7957,
      "army": 7958,
      "plat": 7959,
      "hadna": 7960,
      "compromise": 7961,
      "laces": 7962,
      "sleigh": 7963,
      "differences": 7964,
      "gulped": 7965,
      "slur": 7966,
      "widely": 7967,
      "incts": 7968,
      "instincts": 7969,
      "sion": 7970,
      "gooey": 7971,
      "frisbee": 7972,
      "greatest": 7973,
      "mous": 7974,
      "los": 7975,
      "bundle": 7976,
      "untangle": 7977,
      "snip": 7978,
      "silently": 7979,
      "rinsed": 7980,
      "iring": 7981,
      "liest": 7982,
      "rory": 7983,
      "chains": 7984,
      "nibbling": 7985,
      "fived": 7986,
      "gladly": 7987,
      "laws": 7988,
      "valleys": 7989,
      "globe": 7990,
      "greeting": 7991,
      "keen": 7992,
      "bait": 7993,
      "drill": 7994,
      "drip": 7995,
      "performers": 7996,
      "œa": 7997,
      "asp": 7998,
      "headache": 7999,
      "depths": 8000,
      "tempting": 8001,
      "tay": 8002,
      "halves": 8003,
      "snoring": 8004,
      "hare": 8005,
      "squirted": 8006,
      "confidently": 8007,
      "webs": 8008,
      "doug": 8009,
      "lydia": 8010,
      "learner": 8011,
      "billie": 8012,
      "motions": 8013,
      "challenged": 8014,
      "indoors": 8015,
      "riddle": 8016,
      "tt": 8017,
      "tot": 8018,
      "carton": 8019,
      "rooster": 8020,
      "pizzas": 8021,
      "shea": 8022,
      "unicorns": 8023,
      "droop": 8024,
      "lunchbox": 8025,
      "?!": 8026,
      "ande": 8027,
      "towns": 8028,
      "macar": 8029,
      "poles": 8030,
      "greg": 8031,
      "distra": 8032,
      "thur": 8033,
      "pearls": 8034,
      "softest": 8035,
      "sly": 8036,
      "tured": 8037,
      "mow": 8038,
      "jumpy": 8039,
      "depart": 8040,
      "shoelaces": 8041,
      "xie": 8042,
      "macaroni": 8043,
      "stacks": 8044,
      "toppings": 8045,
      "stings": 8046,
      "sharpen": 8047,
      "furious": 8048,
      "galloped": 8049,
      "ality": 8050,
      "tia": 8051,
      "tiring": 8052,
      "boiled": 8053,
      "biggie": 8054,
      "grandad": 8055,
      "whiz": 8056,
      "niece": 8057,
      "blossom": 8058,
      "steered": 8059,
      "sends": 8060,
      "dumb": 8061,
      "œwill": 8062,
      "boya": 8063,
      "closure": 8064,
      "anya": 8065,
      "gia": 8066,
      "soul": 8067,
      "crafts": 8068,
      "mousy": 8069,
      "sinking": 8070,
      "somehow": 8071,
      "tastiest": 8072,
      "rack": 8073,
      "jimbo": 8074,
      "automobiles": 8075,
      "enjoys": 8076,
      "lilies": 8077,
      "enclosure": 8078,
      "freely": 8079,
      "regularly": 8080,
      "helicopters": 8081,
      "peacefulness": 8082,
      "idi": 8083,
      "pecking": 8084,
      "route": 8085,
      "ladybird": 8086,
      "scrubbing": 8087,
      "crushed": 8088,
      "earrings": 8089,
      "feathered": 8090,
      "hovered": 8091,
      "sphere": 8092,
      "gorge": 8093,
      "mashed": 8094,
      "crit": 8095,
      "brakes": 8096,
      "plumber": 8097,
      "beeping": 8098,
      "guesses": 8099,
      "scrunched": 8100,
      "lur": 8101,
      "hates": 8102,
      "lucya": 8103,
      "steph": 8104,
      "risky": 8105,
      "occasions": 8106,
      "nations": 8107,
      "taps": 8108,
      "winners": 8109,
      "service": 8110,
      "rider": 8111,
      "restoring": 8112,
      "organised": 8113,
      "prof": 8114,
      "lightly": 8115,
      "leaped": 8116,
      "dada": 8117,
      "snuggling": 8118,
      "dusted": 8119,
      "department": 8120,
      "oned": 8121,
      "fail": 8122,
      "hunger": 8123,
      "fashionable": 8124,
      "ordering": 8125,
      "pounding": 8126,
      "gorgeous": 8127,
      "llie": 8128,
      "twel": 8129,
      "fanc": 8130,
      "ivy": 8131,
      "twelve": 8132,
      "dled": 8133,
      "venture": 8134,
      "cd": 8135,
      "shots": 8136,
      "enthusiastically": 8137,
      "peeks": 8138,
      "deserves": 8139,
      "mischief": 8140,
      "caroline": 8141,
      "sparrow": 8142,
      "dripped": 8143,
      "accep": 8144,
      "carefree": 8145,
      "willie": 8146,
      "builders": 8147,
      "rags": 8148,
      "stroller": 8149,
      "whines": 8150,
      "softness": 8151,
      "scores": 8152,
      "horrible": 8153,
      "cul": 8154,
      "mara": 8155,
      "tents": 8156,
      "platform": 8157,
      "rods": 8158,
      "slight": 8159,
      "bumble": 8160,
      "œmummy": 8161,
      "cine": 8162,
      "majestic": 8163,
      "beware": 8164,
      "alf": 8165,
      "cere": 8166,
      "excell": 8167,
      "guided": 8168,
      "leng": 8169,
      "nug": 8170,
      "woken": 8171,
      "bead": 8172,
      "umn": 8173,
      "listener": 8174,
      "mats": 8175,
      "fans": 8176,
      "audre": 8177,
      "cting": 8178,
      "brightened": 8179,
      "audrey": 8180,
      "shaky": 8181,
      "johnnie": 8182,
      "quarrell": 8183,
      "fran": 8184,
      "mustn": 8185,
      "bi": 8186,
      "inny": 8187,
      "access": 8188,
      "dives": 8189,
      "information": 8190,
      "smash": 8191,
      "anybody": 8192,
      "handles": 8193,
      "ige": 8194,
      "joanne": 8195,
      "grumble": 8196,
      "invol": 8197,
      "unlocking": 8198,
      "exercising": 8199,
      "actors": 8200,
      "carni": 8201,
      "nightstand": 8202,
      "displaying": 8203,
      "zookeepers": 8204,
      "scowled": 8205,
      "heidi": 8206,
      "detect": 8207,
      "susy": 8208,
      "community": 8209,
      "cinema": 8210,
      "chant": 8211,
      "matty": 8212,
      "pancake": 8213,
      "praise": 8214,
      "kai": 8215,
      "œgo": 8216,
      "invisible": 8217,
      "adjust": 8218,
      "ula": 8219,
      "lighting": 8220,
      "mmmm": 8221,
      "honeycomb": 8222,
      "kara": 8223,
      "pads": 8224,
      "ics": 8225,
      "mend": 8226,
      "tend": 8227,
      "tah": 8228,
      "devast": 8229,
      "overheard": 8230,
      "sweetness": 8231,
      "slot": 8232,
      "rightful": 8233,
      "cheetah": 8234,
      "isabella": 8235,
      "palms": 8236,
      "taylor": 8237,
      "jemma": 8238,
      "gail": 8239,
      "suspic": 8240,
      "illas": 8241,
      "tongues": 8242,
      "excellent": 8243,
      "ala": 8244,
      "exhibit": 8245,
      "20": 8246,
      "troll": 8247,
      "enchanted": 8248,
      "state": 8249,
      "caves": 8250,
      "north": 8251,
      "igner": 8252,
      "proved": 8253,
      "fences": 8254,
      "chicky": 8255,
      "entering": 8256,
      "crispy": 8257,
      "bly": 8258,
      "nudged": 8259,
      "ift": 8260,
      "bernie": 8261,
      "clips": 8262,
      "ssssssss": 8263,
      "boarded": 8264,
      "striking": 8265,
      "tad": 8266,
      "tless": 8267,
      "beaks": 8268,
      "heights": 8269,
      "competing": 8270,
      "'.\"": 8271,
      "lasers": 8272,
      "glows": 8273,
      "gorillas": 8274,
      "panting": 8275,
      "devastated": 8276,
      "aches": 8277,
      "mound": 8278,
      "marcy": 8279,
      "champion": 8280,
      "dedication": 8281,
      "suck": 8282,
      "afterward": 8283,
      "contained": 8284,
      "untangled": 8285,
      "priest": 8286,
      "eyed": 8287,
      "solid": 8288,
      "stalk": 8289,
      "sizz": 8290,
      "servan": 8291,
      "dining": 8292,
      "frightening": 8293,
      "complimented": 8294,
      "€™.": 8295,
      "threads": 8296,
      "kathy": 8297,
      "funniest": 8298,
      "servants": 8299,
      "mushy": 8300,
      "pace": 8301,
      "speck": 8302,
      "atmo": 8303,
      "descri": 8304,
      "atmosphere": 8305,
      "ilar": 8306,
      "thir": 8307,
      "greta": 8308,
      "peels": 8309,
      "values": 8310,
      "managing": 8311,
      "wig": 8312,
      "ats": 8313,
      "polk": 8314,
      "offers": 8315,
      "farthest": 8316,
      "pudding": 8317,
      "chooses": 8318,
      "mick": 8319,
      "bailey": 8320,
      "belief": 8321,
      "shimmered": 8322,
      "totally": 8323,
      "alfie": 8324,
      "carnival": 8325,
      "timothy": 8326,
      "ducklings": 8327,
      "skinny": 8328,
      "trailer": 8329,
      "nuggets": 8330,
      "thed": 8331,
      "deck": 8332,
      "parking": 8333,
      "ousel": 8334,
      "jumper": 8335,
      "vests": 8336,
      "tanks": 8337,
      "attaching": 8338,
      "dim": 8339,
      "batch": 8340,
      "pairs": 8341,
      "fiercely": 8342,
      "carousel": 8343,
      "farms": 8344,
      "stormy": 8345,
      "polka": 8346,
      "tut": 8347,
      "backward": 8348,
      "energized": 8349,
      "uum": 8350,
      "seeking": 8351,
      "howl": 8352,
      "weights": 8353,
      "sleeve": 8354,
      "everytime": 8355,
      "victo": 8356,
      "dips": 8357,
      "blessed": 8358,
      "rumbled": 8359,
      "therea": 8360,
      "syl": 8361,
      "presence": 8362,
      "squawked": 8363,
      "popsicle": 8364,
      "antlers": 8365,
      "vacuum": 8366,
      "geor": 8367,
      "runny": 8368,
      "twirls": 8369,
      "exams": 8370,
      "autumn": 8371,
      "vit": 8372,
      "amen": 8373,
      "connect": 8374,
      "mates": 8375,
      "aids": 8376,
      "spirits": 8377,
      "nia": 8378,
      "birdseed": 8379,
      "homeless": 8380,
      "sundays": 8381,
      "smoother": 8382,
      "nestled": 8383,
      "nanny": 8384,
      "length": 8385,
      "suspicious": 8386,
      "atop": 8387,
      "damp": 8388,
      "œwait": 8389,
      "chief": 8390,
      "winks": 8391,
      "birda": 8392,
      "reality": 8393,
      "goldie": 8394,
      "knitting": 8395,
      "considerate": 8396,
      "twitched": 8397,
      "roast": 8398,
      "tripping": 8399,
      "fection": 8400,
      "loos": 8401,
      "parrots": 8402,
      "blob": 8403,
      "arrange": 8404,
      "isla": 8405,
      "alison": 8406,
      "commotion": 8407,
      "lakes": 8408,
      "threatened": 8409,
      "crusty": 8410,
      "œme": 8411,
      "designer": 8412,
      "alexa": 8413,
      "skips": 8414,
      "plow": 8415,
      "ellen": 8416,
      "marg": 8417,
      "scaly": 8418,
      "practising": 8419,
      "handlebars": 8420,
      "wrecked": 8421,
      "oars": 8422,
      "huff": 8423,
      "delightful": 8424,
      "ripples": 8425,
      "cooks": 8426,
      "addition": 8427,
      "cruel": 8428,
      "hy": 8429,
      "ridge": 8430,
      "fles": 8431,
      "buckles": 8432,
      "kelsey": 8433,
      "urging": 8434,
      "gliding": 8435,
      "sells": 8436,
      "recip": 8437,
      "solutions": 8438,
      "ceremony": 8439,
      "reck": 8440,
      "herd": 8441,
      "elders": 8442,
      "scrape": 8443,
      "workshop": 8444,
      "loneliness": 8445,
      "sickness": 8446,
      "suggests": 8447,
      "foreshadowing": 8448,
      "stained": 8449,
      "toad": 8450,
      "arthur": 8451,
      "bop": 8452,
      "spied": 8453,
      "clothing": 8454,
      "flowed": 8455,
      "calf": 8456,
      "carrie": 8457,
      "studies": 8458,
      "purchase": 8459,
      "chattered": 8460,
      "swirled": 8461,
      "hoof": 8462,
      "protector": 8463,
      "contents": 8464,
      "trunks": 8465,
      "supplying": 8466,
      "tours": 8467,
      "disagreeing": 8468,
      "reel": 8469,
      "online": 8470,
      "obl": 8471,
      "thous": 8472,
      "supermarket": 8473,
      "sneaking": 8474,
      "laure": 8475,
      "hearted": 8476,
      "spaces": 8477,
      "reckless": 8478,
      "ces": 8479,
      "neighed": 8480,
      "dawn": 8481,
      "porridge": 8482,
      "scree": 8483,
      "patients": 8484,
      "campsite": 8485,
      "holidays": 8486,
      "wilma": 8487,
      "injuries": 8488,
      "gilly": 8489,
      "freshly": 8490,
      "massages": 8491,
      "aback": 8492,
      "justin": 8493,
      "swirling": 8494,
      "bounded": 8495,
      "antenna": 8496,
      "arch": 8497,
      "avoided": 8498,
      "dustpan": 8499,
      "horror": 8500,
      "pitcher": 8501,
      "dribb": 8502,
      "lurking": 8503,
      "constru": 8504,
      "stretchy": 8505,
      "darted": 8506,
      "inno": 8507,
      "gardening": 8508,
      "voy": 8509,
      "resisting": 8510,
      "ony": 8511,
      "erasers": 8512,
      "monica": 8513,
      "fourth": 8514,
      "dylan": 8515,
      "tumbling": 8516,
      "possession": 8517,
      "blame": 8518,
      "painful": 8519,
      "layla": 8520,
      "rani": 8521,
      "kar": 8522,
      "device": 8523,
      "desc": 8524,
      "inting": 8525,
      "tingle": 8526,
      "projects": 8527,
      "meets": 8528,
      "dande": 8529,
      "ald": 8530,
      "duke": 8531,
      "pals": 8532,
      "hammering": 8533,
      "zippy": 8534,
      "glimmer": 8535,
      "code": 8536,
      "toot": 8537,
      "saraha": 8538,
      "marvel": 8539,
      "owning": 8540,
      "flappy": 8541,
      "dodging": 8542,
      "margaret": 8543,
      "albert": 8544,
      "adop": 8545,
      "aband": 8546,
      "launch": 8547,
      "var": 8548,
      "tone": 8549,
      "snowing": 8550,
      "recipes": 8551,
      "œhere": 8552,
      "hurtful": 8553,
      "potty": 8554,
      "tutu": 8555,
      "reaction": 8556,
      "raked": 8557,
      "carve": 8558,
      "dong": 8559,
      "wicked": 8560,
      "hairs": 8561,
      "shortcut": 8562,
      "fare": 8563,
      "nelly": 8564,
      "suring": 8565,
      "dv": 8566,
      "sul": 8567,
      "œmum": 8568,
      "anyways": 8569,
      "brag": 8570,
      "kest": 8571,
      "explode": 8572,
      "grandkids": 8573,
      "wetter": 8574,
      "œbecause": 8575,
      "ira": 8576,
      "litter": 8577,
      "spoken": 8578,
      "gerry": 8579,
      "buys": 8580,
      "tightened": 8581,
      "lauren": 8582,
      "faye": 8583,
      "tales": 8584,
      "armor": 8585,
      "dio": 8586,
      "streams": 8587,
      "godmother": 8588,
      "wobbles": 8589,
      "œjohn": 8590,
      "coaster": 8591,
      "squirmed": 8592,
      "suitcases": 8593,
      "disgusted": 8594,
      "scientists": 8595,
      "accessor": 8596,
      "forwards": 8597,
      "islands": 8598,
      "disappears": 8599,
      "possessions": 8600,
      "clutched": 8601,
      "bs": 8602,
      "yous": 8603,
      "puffy": 8604,
      "winking": 8605,
      "settling": 8606,
      "slightly": 8607,
      "œremember": 8608,
      "sax": 8609,
      "sumed": 8610,
      "embrace": 8611,
      "guitars": 8612,
      "voyage": 8613,
      "theo": 8614,
      "petey": 8615,
      "janice": 8616,
      "dumped": 8617,
      "lolly": 8618,
      "pedalled": 8619,
      "hideout": 8620,
      "villain": 8621,
      "blush": 8622,
      "woodpeck": 8623,
      "racers": 8624,
      "soggy": 8625,
      "cling": 8626,
      "pounce": 8627,
      "icated": 8628,
      "performer": 8629,
      "surrounding": 8630,
      "eww": 8631,
      "afri": 8632,
      "charles": 8633,
      "honor": 8634,
      "rey": 8635,
      "rink": 8636,
      "raises": 8637,
      "streaming": 8638,
      "volcanoes": 8639,
      "shuff": 8640,
      "studio": 8641,
      "cass": 8642,
      "begun": 8643,
      "showers": 8644,
      "discussion": 8645,
      "puffed": 8646,
      "distract": 8647,
      "juni": 8648,
      "lumpy": 8649,
      "unlike": 8650,
      "grandchildren": 8651,
      "scooping": 8652,
      "dash": 8653,
      "glistened": 8654,
      "starry": 8655,
      "dora": 8656,
      "sculptures": 8657,
      "vitam": 8658,
      "zel": 8659,
      "sav": 8660,
      "riches": 8661,
      "budd": 8662,
      "stomachs": 8663,
      "pave": 8664,
      "carved": 8665,
      "quicker": 8666,
      "jamin": 8667,
      "adventurers": 8668,
      "obstacles": 8669,
      "acro": 8670,
      "musical": 8671,
      "contentment": 8672,
      "rustle": 8673,
      "refusing": 8674,
      "nis": 8675,
      "stiff": 8676,
      "unkind": 8677,
      "shame": 8678,
      "attendant": 8679,
      "twit": 8680,
      "benjamin": 8681,
      "capes": 8682,
      "zippers": 8683,
      "accepting": 8684,
      "payoff": 8685,
      "woodpecker": 8686,
      "pier": 8687,
      "assist": 8688,
      "angela": 8689,
      "floaty": 8690,
      "lexi": 8691,
      "flyer": 8692,
      "persu": 8693,
      "trad": 8694,
      "plum": 8695,
      "trud": 8696,
      "missiles": 8697,
      "respecting": 8698,
      "connection": 8699,
      "pavement": 8700,
      "ruled": 8701,
      "snarled": 8702,
      "interrupted": 8703,
      "arrested": 8704,
      "escap": 8705,
      "mailing": 8706,
      "chirps": 8707,
      "yawns": 8708,
      "passion": 8709,
      "jogger": 8710,
      "uttered": 8711,
      "unload": 8712,
      "signal": 8713,
      "splitting": 8714,
      "mixes": 8715,
      "steaming": 8716,
      "resour": 8717,
      "charity": 8718,
      "jeans": 8719,
      "œhelp": 8720,
      "angie": 8721,
      "pail": 8722,
      "diana": 8723,
      "spanish": 8724,
      "mely": 8725,
      "extre": 8726,
      "explan": 8727,
      "equally": 8728,
      "lovingly": 8729,
      "saddle": 8730,
      "hammered": 8731,
      "thoughtfully": 8732,
      "scolding": 8733,
      "creepy": 8734,
      "jigg": 8735,
      "bethan": 8736,
      "begs": 8737,
      "otto": 8738,
      "nightfall": 8739,
      "jaws": 8740,
      "manny": 8741,
      "tingling": 8742,
      "bould": 8743,
      "gri": 8744,
      "ernie": 8745,
      "pred": 8746,
      "appet": 8747,
      "numbered": 8748,
      "independence": 8749,
      "scribbled": 8750,
      "saxop": 8751,
      "terribly": 8752,
      "shields": 8753,
      "bobbed": 8754,
      "abandoned": 8755,
      "patting": 8756,
      "double": 8757,
      "bethany": 8758,
      "bla": 8759,
      "unted": 8760,
      "curves": 8761,
      "zigzags": 8762,
      "instant": 8763,
      "ister": 8764,
      "taco": 8765,
      "gruff": 8766,
      ".'\"": 8767,
      "juggling": 8768,
      "fist": 8769,
      "ruffled": 8770,
      "extremely": 8771,
      "frienda": 8772,
      "exchanged": 8773,
      "lectures": 8774,
      "trudged": 8775,
      "spades": 8776,
      "carts": 8777,
      "prison": 8778,
      "prefer": 8779,
      "toni": 8780,
      "dvd": 8781,
      "rises": 8782,
      "hugo": 8783,
      "quizzes": 8784,
      "bands": 8785,
      "sweeping": 8786,
      "whimper": 8787,
      "escaping": 8788,
      "icking": 8789,
      "percy": 8790,
      "plets": 8791,
      "harmful": 8792,
      "sel": 8793,
      "pinec": 8794,
      "hurrying": 8795,
      "grinning": 8796,
      "farewell": 8797,
      "destru": 8798,
      "birdies": 8799,
      "captured": 8800,
      "succeeding": 8801,
      "events": 8802,
      "lifetime": 8803,
      "stares": 8804,
      "elizabeth": 8805,
      "abilities": 8806,
      "capt": 8807,
      "scott": 8808,
      "lilya": 8809,
      "unloaded": 8810,
      "posed": 8811,
      "clung": 8812,
      "limits": 8813,
      "fishermen": 8814,
      "stomping": 8815,
      "saxophone": 8816,
      "lin": 8817,
      "erin": 8818,
      "roam": 8819,
      "mustaches": 8820,
      "ladders": 8821,
      "views": 8822,
      "yielding": 8823,
      "complicated": 8824,
      "grains": 8825,
      "rais": 8826,
      "suns": 8827,
      "squigg": 8828,
      "splat": 8829,
      "peculi": 8830,
      "invention": 8831,
      "peculiar": 8832,
      "carriage": 8833,
      "goods": 8834,
      "tucks": 8835,
      "panicking": 8836,
      "journeyed": 8837,
      "piper": 8838,
      "richard": 8839,
      "africa": 8840,
      "undo": 8841,
      "maxine": 8842,
      "aculous": 8843,
      "guilt": 8844,
      "miraculous": 8845,
      "nellie": 8846,
      "cables": 8847,
      "approval": 8848,
      "strummed": 8849,
      "explanation": 8850,
      "œstop": 8851,
      "ruffy": 8852,
      "squashes": 8853,
      "warming": 8854,
      "favorites": 8855,
      "combs": 8856,
      "quarrelling": 8857,
      "som": 8858,
      "eline": 8859,
      "kindest": 8860,
      "flakes": 8861,
      "snoo": 8862,
      "riet": 8863,
      "nathan": 8864,
      "prop": 8865,
      "proceed": 8866,
      "separating": 8867,
      "buddies": 8868,
      "perch": 8869,
      "curve": 8870,
      "leopards": 8871,
      "spelling": 8872,
      "strikes": 8873,
      "tit": 8874,
      "chunk": 8875,
      "joyous": 8876,
      "barbe": 8877,
      "protects": 8878,
      "static": 8879,
      "requests": 8880,
      "motioned": 8881,
      "jules": 8882,
      "umph": 8883,
      "compare": 8884,
      "persever": 8885,
      "accidently": 8886,
      "rattle": 8887,
      "richer": 8888,
      "melts": 8889,
      "woolly": 8890,
      "jasper": 8891,
      "flit": 8892,
      "serves": 8893,
      "raincoats": 8894,
      "sations": 8895,
      "pastor": 8896,
      "subjects": 8897,
      "banks": 8898,
      "gobble": 8899,
      "wrinkly": 8900,
      "concentrate": 8901,
      "pendant": 8902,
      "outing": 8903,
      "sung": 8904,
      "droplets": 8905,
      "eleven": 8906,
      "sneakers": 8907,
      "earthquakes": 8908,
      "wriggling": 8909,
      "concentrated": 8910,
      "detective": 8911,
      "dries": 8912,
      "marty": 8913,
      "birthdays": 8914,
      "stalks": 8915,
      "mommya": 8916,
      "minty": 8917,
      "reassuring": 8918,
      "haps": 8919,
      "lobby": 8920,
      "advan": 8921,
      "esy": 8922,
      "skating": 8923,
      "chicks": 8924,
      "friendships": 8925,
      "stephanie": 8926,
      "bum": 8927,
      "jade": 8928,
      "shouldna": 8929,
      "stretcher": 8930,
      "strict": 8931,
      "striped": 8932,
      "simba": 8933,
      "chom": 8934,
      "craz": 8935,
      "appears": 8936,
      "notices": 8937,
      "posters": 8938,
      "supportive": 8939,
      "kneels": 8940,
      "cole": 8941,
      "wrappers": 8942,
      "crosses": 8943,
      "shades": 8944,
      "surrendering": 8945,
      "conversations": 8946,
      "zap": 8947,
      "inched": 8948,
      "fixer": 8949,
      "squirt": 8950,
      "sleepover": 8951,
      "duckie": 8952,
      "glimp": 8953,
      "hopeless": 8954,
      "bleeds": 8955,
      "gent": 8956,
      "lef": 8957,
      "waitress": 8958,
      "dialed": 8959,
      "defend": 8960,
      "curved": 8961,
      "sealed": 8962,
      "strolling": 8963,
      "moderation": 8964,
      "crunching": 8965,
      "stems": 8966,
      "stitched": 8967,
      "12": 8968,
      "fading": 8969,
      "unfolded": 8970,
      "cheesy": 8971,
      "gener": 8972,
      "tightrope": 8973,
      "priv": 8974,
      "scuttled": 8975,
      "gal": 8976,
      "catty": 8977,
      "ladies": 8978,
      "acy": 8979,
      "perhaps": 8980,
      "flippers": 8981,
      "'?\"": 8982,
      "heated": 8983,
      "dodge": 8984,
      "marcus": 8985,
      "importantly": 8986,
      "smoo": 8987,
      "announce": 8988,
      "envy": 8989,
      "cigarette": 8990,
      "savanna": 8991,
      "œmama": 8992,
      "forced": 8993,
      "setup": 8994,
      "daisya": 8995,
      "scooted": 8996,
      "dazz": 8997,
      "sandals": 8998,
      "juggle": 8999,
      "hammers": 9000,
      "strea": 9001,
      "namon": 9002,
      "swift": 9003,
      "overflowing": 9004,
      "sery": 9005,
      "lamps": 9006,
      "nursery": 9007,
      "cinnamon": 9008,
      "œjust": 9009,
      "ersa": 9010,
      "outer": 9011,
      "playfully": 9012,
      "grumbling": 9013,
      "training": 9014,
      "giants": 9015,
      "guarded": 9016,
      "photogra": 9017,
      "leaping": 9018,
      "curls": 9019,
      "rina": 9020,
      "vig": 9021,
      "mack": 9022,
      "trace": 9023,
      "lawyers": 9024,
      "biscuits": 9025,
      "boulder": 9026,
      "?,\"": 9027,
      "chard": 9028,
      "stump": 9029,
      "gram": 9030,
      "colla": 9031,
      "repairs": 9032,
      "skelly": 9033,
      ":\"": 9034,
      "broo": 9035,
      "braced": 9036,
      "proceeded": 9037,
      "gab": 9038,
      "stray": 9039,
      "fulfilled": 9040,
      "ecstatic": 9041,
      "newly": 9042,
      "bruise": 9043,
      "clucked": 9044,
      "rustled": 9045,
      "aisles": 9046,
      "stunned": 9047,
      "shuffled": 9048,
      "asped": 9049,
      "grownups": 9050,
      "vitamins": 9051,
      "captiv": 9052,
      "chugged": 9053,
      "helle": 9054,
      "firewood": 9055,
      "turkeys": 9056,
      "dodges": 9057,
      "somersa": 9058,
      "behold": 9059,
      "seated": 9060,
      "sum": 9061,
      "frames": 9062,
      "icia": 9063,
      "mari": 9064,
      "princes": 9065,
      "culture": 9066,
      "orchard": 9067,
      "boomed": 9068,
      "roxy": 9069,
      "emmie": 9070,
      "ogre": 9071,
      "switches": 9072,
      "empt": 9073,
      "dina": 9074,
      "scruffy": 9075,
      "layer": 9076,
      "elder": 9077,
      "sleeves": 9078,
      "contentedly": 9079,
      "bid": 9080,
      "fists": 9081,
      "ilst": 9082,
      "loser": 9083,
      "whilst": 9084,
      "salads": 9085,
      "tiptoes": 9086,
      "trails": 9087,
      "timidly": 9088,
      "11": 9089,
      "sama": 9090,
      "canes": 9091,
      "paige": 9092,
      "hardworking": 9093,
      "ballet": 9094,
      "edward": 9095,
      "moe": 9096,
      "lowers": 9097,
      "snipped": 9098,
      "fitting": 9099,
      "thinner": 9100,
      "stunning": 9101,
      "pigg": 9102,
      "reader": 9103,
      "janea": 9104,
      "balcon": 9105,
      "barky": 9106,
      "gaining": 9107,
      "chi": 9108,
      "blech": 9109,
      "longing": 9110,
      "spee": 9111,
      "salsa": 9112,
      "ouchy": 9113,
      "inspected": 9114,
      "ginny": 9115,
      "clin": 9116,
      "promising": 9117,
      "triumph": 9118,
      "tiara": 9119,
      "smoothie": 9120,
      "combing": 9121,
      "bobbing": 9122,
      "descended": 9123,
      "vious": 9124,
      "brrr": 9125,
      "blend": 9126,
      "michelle": 9127,
      "junior": 9128,
      "cities": 9129,
      "jogs": 9130,
      "othera": 9131,
      "deeds": 9132,
      "obstacle": 9133,
      "raw": 9134,
      "spotty": 9135,
      "paramed": 9136,
      "partner": 9137,
      "ferris": 9138,
      "speech": 9139,
      "tack": 9140,
      "idance": 9141,
      "guidance": 9142,
      "barney": 9143,
      "begging": 9144,
      "bangs": 9145,
      "targets": 9146,
      "majesty": 9147,
      "doub": 9148,
      "loosen": 9149,
      "tang": 9150,
      "sele": 9151,
      "nephew": 9152,
      "moles": 9153,
      "france": 9154,
      "wondr": 9155,
      "amazingly": 9156,
      "drags": 9157,
      "staircase": 9158,
      "pineapple": 9159,
      "experiments": 9160,
      "wondrous": 9161,
      "kill": 9162,
      "ime": 9163,
      "tabby": 9164,
      "sline": 9165,
      "clothesline": 9166,
      "mason": 9167,
      "anxiously": 9168,
      "tickly": 9169,
      "mal": 9170,
      "œdaddy": 9171,
      "beary": 9172,
      "delaying": 9173,
      "antennae": 9174,
      "!,\"": 9175,
      "besides": 9176,
      "cleare": 9177,
      "nels": 9178,
      "cracking": 9179,
      "confusing": 9180,
      "slo": 9181,
      "mollie": 9182,
      "squat": 9183,
      "replacing": 9184,
      "stylish": 9185,
      "prices": 9186,
      "cies": 9187,
      "treating": 9188,
      "shorel": 9189,
      "adventurer": 9190,
      "wobbling": 9191,
      "compliment": 9192,
      "barbecu": 9193,
      "balcony": 9194,
      "aah": 9195,
      "resumed": 9196,
      "stacy": 9197,
      "roasted": 9198,
      "brighten": 9199,
      "cursed": 9200,
      "acrobats": 9201,
      "shoreline": 9202,
      "crust": 9203,
      "jem": 9204,
      "mast": 9205,
      "itlyn": 9206,
      "ils": 9207,
      "hooked": 9208,
      "arrives": 9209,
      "burt": 9210,
      "fuzz": 9211,
      "louie": 9212,
      "fired": 9213,
      "options": 9214,
      "greater": 9215,
      "phoe": 9216,
      "gertie": 9217,
      "wrists": 9218,
      "beams": 9219,
      "securely": 9220,
      "mower": 9221,
      "iety": 9222,
      "tech": 9223,
      "lately": 9224,
      "screech": 9225,
      "carlos": 9226,
      "mindy": 9227,
      "folders": 9228,
      "ironing": 9229,
      "thirty": 9230,
      "pris": 9231,
      "barrels": 9232,
      "shrimps": 9233,
      "emergencies": 9234,
      "background": 9235,
      "ssy": 9236,
      "skates": 9237,
      "sicker": 9238,
      "kaylee": 9239,
      "toothpaste": 9240,
      "fifty": 9241,
      "position": 9242,
      "captivated": 9243,
      "inspir": 9244,
      "aries": 9245,
      "attempt": 9246,
      "nell": 9247,
      "chug": 9248,
      "sprung": 9249,
      "ical": 9250,
      "props": 9251,
      "releasing": 9252,
      "cucumbers": 9253,
      "lens": 9254,
      "witness": 9255,
      "quality": 9256,
      "recovered": 9257,
      "arrest": 9258,
      "doc": 9259,
      "railing": 9260,
      "fling": 9261,
      "thanksgiving": 9262,
      "snails": 9263,
      "fanciest": 9264,
      "construction": 9265,
      "phoebe": 9266,
      "vir": 9267,
      "alicia": 9268,
      "ima": 9269,
      "liar": 9270,
      "ladybugs": 9271,
      "fixes": 9272,
      "pricked": 9273,
[...]
